, 283779
. 252674
the 102900
to 66520
of 60196
là 57910
a 56757
and 56623
tôi 51620
một 48883
có 48119
và 47899
that 46536
I 43445
in 40342
&quot; 38655
những 37870
chúng 37314
của 36909
is 34177
you 32891
it 31578
không 30600
ta 30568
&apos;s 29550
we 28513
người 26666
đó 26654
bạn 26576
trong 24752
thể 24246
And 23246
? 23152
này 23040
đã 22941
các 22484
được 21999
this 21367
với 20505
-- 20077
cho 19648
sự 19011
ra 18975
Và 18677
làm 17819
ở 16756
nó 16613
mà 16163
để 16090
was 15955
về 15914
như 15566
sẽ 15549
for 15378
on 14899
are 14706
: 14474
điều 14252
have 14165
thế 14071
they 13802
with 13240
khi 12854
Tôi 12554
nói 12536
họ 12505
can 12469
do 12128
đến 11810
So 11733
&apos;t 11575
what 11404
phải 11364
about 11101
rằng 10951
vào 10862
đang 10794
việc 10755
gì 10727
từ 10704
be 10529
lại 10437
at 10395
as 10375
thấy 10275
an 10172
rất 10106
cách 10083
hơn 9916
nhiều 9732
all 9647
not 9426
thực 9212
đầu 9178
cả 9168
đây 8931
my 8864
học 8830
so 8820
con 8744
khác 8724
&apos;re 8617
one 8612
there 8611
people 8560
công 8547
trên 8513
It 8386
cái 8281
like 8271
vì 8255
nào 8215
chỉ 8185
from 8185
biết 8181
Chúng 8159
năm 7701
nghĩ 7522
thứ 7521
or 7518
đi 7414
thành 7399
but 7302
our 7181
cũng 7024
just 6896
me 6843
nhà 6838
số 6785
The 6770
bị 6689
quan 6652
We 6615
But 6562
muốn 6562
these 6474
if 6404
very 6368
out 6335
mình 6332
1 6316
nhưng 6291
nhất 6283
Nhưng 6226
by 6191
tạo 6186
động 6155
them 6129
chính 6125
giới 6098
nên 5986
more 5909
vậy 5906
when 5863
up 5860
going 5787
know 5674
because 5630
hình 5605
had 5504
hiện 5503
giờ 5485
us 5478
sống 5454
he 5446
tại 5409
nếu 5382
nhận 5378
mọi 5361
how 5350
your 5333
their 5285
think 5282
who 5275
ông 5260
see 5228
were 5217
cuộc 5208
hay 5186
cần 5166
which 5153
thì 5085
really 5075
would 5057
ấy 5045
đề 5009
tự 4964
tất 4938
get 4933
bởi 4871
anh 4845
tới 4839
theo 4815
bắt 4807
còn 4747
-@@ 4746
lớn 4733
nhìn 4731
ý 4726
re@@ 4686
cùng 4680
bằng 4675
cảm 4643
tin 4630
&apos;ve 4621
tế 4607
b@@ 4600
sau 4594
dụng 4593
&apos;m 4569
thật 4568
time 4549
way 4548
câu 4544
lên 4526
bản 4509
world 4451
thời 4448
chuyện 4424
sao 4413
then 4410
trở 4406
here 4400
You 4389
qua 4379
ngày 4370
nhân 4368
This 4354
bộ 4348
cơ 4346
sinh 4340
S@@ 4309
has 4249
some 4220
năng 4213
actually 4204
phát 4185
trước 4180
nước 4173
into 4149
đổi 4145
toàn 4105
phần 4096
don 4095
gia 4085
s@@ 4057
nơi 4047
t@@ 4035
thông 4034
tìm 3991
years 3987
nhau 3975
thay 3971
mới 3957
vấn 3927
định 3919
Now 3896
Nó 3878
d@@ 3873
things 3869
trường 3853
will 3849
other 3848
now 3837
nhiên 3832
tính 3801
Đây 3795
sử 3782
trình 3769
hệ 3768
tốt 3731
tưởng 3729
kết 3721
where 3719
They 3685
want 3680
go 3667
vật 3650
ảnh 3626
hàng 3623
could 3619
lý 3608
hỏi 3585
make 3579
Bạn 3508
máy 3502
; 3480
been 3470
hợp 3441
ai 3415
Đó 3405
than 3387
mặt 3386
hành 3355
tiếp 3349
said 3342
kinh 3327
gian 3317
l@@ 3309
nữa 3301
thức 3296
hội 3286
M@@ 3277
thiết 3271
rồi 3237
xem 3228
liệu 3221
trọng 3212
hoá 3197
something 3197
thích 3194
cô 3181
C@@ 3176
r@@ 3175
vị 3156
đồng 3139
giải 3120
much 3108
no 3108
T@@ 3093
hai 3079
two 3048
m@@ 3040
lượng 3038
trẻ 3035
thing 3030
first 3027
right 3025
thường 2981
bất 2980
vài 2977
those 2971
g@@ 2969
đều 2966
also 2954
ch@@ 2952
v@@ 2943
tiên 2938
in@@ 2932
Một 2926
đối 2925
B@@ 2918
sáng 2900
hiểu 2874
say 2863
nay 2857
quá 2855
tâm 2853
loại 2846
giống 2831
c@@ 2830
life 2830
ing 2826
lần 2826
work 2820
Vì 2816
bao 2810
cứu 2793
back 2791
thống 2790
bệnh 2789
look 2784
In 2783
a@@ 2760
she 2759
little 2756
got 2749
viên 2748
his 2721
h@@ 2708
That 2707
nghệ 2695
A@@ 2692
điểm 2685
nghĩa 2684
gọi 2670
tr@@ 2661
Có 2649
need 2633
Vậy 2632
nhỏ 2632
over 2629
only 2624
most 2619
n@@ 2607
đưa 2570
What 2564
even 2562
tương 2562
hoàn 2560
độ 2547
nghiệm 2543
quả 2532
tác 2522
đường 2513
k@@ 2500
ăn 2495
vẫn 2487
many 2483
es 2470
take 2467
ed 2466
lot 2459
xảy 2453
Họ 2446
p@@ 2443
chiếc 2439
li@@ 2433
y 2426
thuật 2424
em 2417
dùng 2415
did 2407
hoặc 2403
đại 2402
able 2401
new 2400
biệt 2397
al 2392
bên 2382
2 2380
từng 2375
o 2374
dân 2372
triển 2363
D@@ 2361
chuyển 2355
L@@ 2353
lúc 2345
diễn 2343
o@@ 2341
Điều 2341
e 2340
e@@ 2336
around 2334
her 2331
th@@ 2328
i 2327
quyết 2317
trị 2304
P@@ 2294
cao 2293
kind 2293
good 2292
different 2285
nghe 2282
Những 2281
H@@ 2274
tuyệt 2254
mỗi 2250
day 2246
khoảng 2242
There 2233
i@@ 2226
cầu 2224
chất 2220
lực 2219
kế 2215
y@@ 2214
Nếu 2207
ting 2191
10 2188
phụ 2187
en@@ 2181
through 2177
N@@ 2175
s 2174
ơn 2171
di@@ 2157
giáo 2157
lời 2148
un@@ 2147
down 2146
cố 2136
giúp 2136
đất 2135
&apos; 2131
ng@@ 2130
R@@ 2127
trung 2119
ti@@ 2109
K@@ 2095
bảo 2091
use 2089
giá 2086
tiến 2086
come 2080
hết 2078
t 2078
phòng 2074
nữ 2071
nghiên 2068
chưa 2063
xe 2060
xuất 2058
mang 2033
same 2033
&apos;ll 2032
liên 2031
tình 2031
Well 2023
phân 2021
every 2012
Anh 2004
being 2003
não 2003
tranh 2003
đơn 2003
tập 2000
truyền 1999
ri@@ 1996
tuổi 1988
phương 1985
đúng 1985
He 1978
bình 1977
er 1974
đặt 1973
u@@ 1972
tượng 1968
điện 1964
- 1959
bài 1959
biến 1948
tay 1945
Khi 1938
giữa 1938
sản 1938
tiền 1938
tiếng 1923
If 1917
x@@ 1915
doing 1909
de@@ 1901
its 1900
yêu 1899
3 1891
khả 1891
m 1889
ngay 1886
trả 1885
khoa 1882
hãy 1878
E@@ 1877
ate 1858
any 1857
thú 1857
put 1847
lấy 1846
ty 1841
ted 1838
Không 1835
nh@@ 1835
ít 1831
gần 1826
called 1824
xã 1824
hoạt 1823
chiến 1805
bỏ 1800
cá 1800
sách 1794
đáng 1784
Trong 1783
percent 1775
phẩm 1772
pháp 1767
hiệu 1766
! 1762
made 1760
three 1756
âm 1756
cuối 1754
talk 1754
ph@@ 1753
khó 1751
chơi 1747
thân 1747
chủ 1741
dụ 1739
why 1738
&apos;d 1737
cứ 1737
dự 1734
Các 1729
G@@ 1722
minh 1721
mất 1721
p 1720
sức 1720
A 1713
kể 1712
đời 1710
Mỹ 1699
an@@ 1696
F@@ 1693
ly 1678
mạnh 1672
well 1669
nghiệp 1665
đồ 1664
dẫn 1660
ngoài 1660
year 1655
lập 1651
tell 1651
ated 1649
tài 1649
tinh 1644
chí 1640
loài 1637
own 1637
kỳ 1635
bé 1631
lo@@ 1629
đấy 1629
bức 1627
đ@@ 1623
ts 1616
luôn 1611
ar@@ 1610
fact 1610
dựng 1609
xây 1609
change 1607
... 1601
trí 1601
tiêu 1600
find 1596
cộng 1585
tên 1584
văn 1584
today 1583
mô 1581
chứng 1579
may 1579
án 1579
di 1578
vô 1574
f@@ 1572
didn 1566
let 1565
ba 1561
thu 1561
tử 1561
ứng 1561
hướng 1552
20 1550
V@@ 1542
brain 1540
idea 1540
phố 1537
nhạc 1536
thử 1528
viết 1521
O@@ 1514
chức 1514
nguyên 1512
kiến 1509
human 1506
quốc 1506
started 1506
Hãy 1502
giả 1501
vời 1497
chọn 1487
giản 1487
đâu 1486
Thank 1485
should 1485
đặc 1483
great 1479
quyền 1479
ers 1477
chế 1476
went 1475
vi 1474
end 1466
tư 1466
bào 1465
man 1464
chết 1463
mạng 1463
last 1461
cấp 1459
or@@ 1459
suy 1454
mi@@ 1453
triệu 1453
after 1450
big 1449
tăng 1449
al@@ 1447
khí 1444
I@@ 1441
bà 1441
important 1438
nền 1438
thần 1438
st@@ 1437
đạo 1435
thought 1432
before 1428
đứa 1427
might 1416
phá 1416
khỏi 1408
lẽ 1407
sĩ 1406
give 1405
w@@ 1405
course 1404
story 1400
problem 1396
màu 1392
đánh 1386
as@@ 1385
off 1380
gặp 1378
el@@ 1376
ds 1374
thị 1374
better 1373
tháng 1372
khu 1370
Thế 1367
still 1364
dưới 1363
bit 1361
show 1361
vụ 1352
part 1351
xuống 1351
mẹ 1348
never 1348
each 1338
er@@ 1337
gắng 1337
chia 1335
chút 1333
it@@ 1332
si@@ 1329
khá 1322
n 1322
nhóm 1319
phép 1319
mở 1316
% 1315
dịch 1315
quanh 1315
Th@@ 1313
gi@@ 1311
came 1309
vực 1307
together 1306
xác 1306
bay 1305
le 1305
tham 1305
dữ 1304
khiến 1303
Bây 1293
less 1293
When 1292
k 1289
thêm 1286
con@@ 1284
next 1283
la@@ 1279
trò 1278
mức 1277
another 1276
start 1273
ation 1271
thuyết 1268
ago 1267
system 1267
quay 1266
Ch@@ 1265
nhanh 1265
place 1264
at@@ 1262
dạng 1261
qu@@ 1261
gây 1259
him 1259
vi@@ 1259
5 1257
tổ 1257
sh@@ 1256
cực 1254
đàn 1254
rõ 1253
between 1252
cụ 1250
Đ@@ 1250
age 1248
30 1246
vọng 1245
4 1242
nguồn 1240
few 1237
vùng 1235
cảnh 1231
does 1231
used 1226
bây 1223
báo 1220
u 1220
ro@@ 1218
dù 1217
co@@ 1214
tục 1213
am 1212
How 1211
giác 1209
đẹp 1208
long 1203
càng 1202
sát 1202
chắc 1201
xa 1201
la 1200
dễ 1199
to@@ 1197
again 1196
too 1195
question 1194
red 1194
đủ 1190
data 1188
ví 1188
cây 1186
trang 1183
phía 1181
se@@ 1181
love 1177
hôm 1176
phim 1176
biểu 1175
hưởng 1175
ever 1172
nhớ 1172
New 1171
đoạn 1171
found 1170
50 1165
duy 1163
le@@ 1162
mean 1162
try 1162
women 1162
vũ 1158
TED 1157
kiểm 1154
example 1149
chẳng 1146
be@@ 1145
thương 1145
ding 1143
trái 1142
Quốc 1140
Ông 1137
ab@@ 1136
dài 1132
on@@ 1132
water 1132
done 1131
live 1130
vòng 1127
se 1125
ex@@ 1124
ter 1122
luận 1121
phản 1120
ngữ 1117
Because 1116
tions 1114
point 1113
en 1112
understand 1112
W@@ 1109
looking 1109
Trung 1107
ad@@ 1106
ni@@ 1104
wanted 1101
doesn 1099
đầy 1099
children 1098
g 1098
kì 1095
os@@ 1094
lợi 1093
technology 1092
dục 1090
real 1088
kia 1087
de 1086
đôi 1085
giảm 1083
J@@ 1081
thậm 1081
st 1078
school 1077
thuốc 1073
l 1072
always 1066
ac@@ 1065
kiếm 1064
believe 1062
tích 1062
vừa 1062
call 1061
ment 1058
working 1058
trăm 1055
person 1050
chú 1049
money 1049
ve 1049
video 1048
chân 1047
thư 1046
ánh 1046
đình 1039
ded 1035
giao 1035
hạn 1033
four 1030
thôi 1030
lai 1029
bước 1028
tion 1027
bi@@ 1025
away 1024
sort 1021
dis@@ 1020
sâu 1019
sp@@ 1018
Tại 1016
Người 1013
toán 1011
U@@ 1010
100 1009
môi 1009
ous 1008
trải 1006
whole 1005
create 1004
help 1001
diện 1000
tồn 1000
information 997
old 996
z@@ 995
kids 993
.@@ 991
trời 991
phục 990
Bởi 988
rộng 988
trying 988
feel 987
giữ 987
thanh 987
es@@ 986
nối 984
dành 983
ap@@ 981
đoán 980
light 978
địa 978
chi 976
country 976
sai 976
riêng 975
thuộc 975
using 975
lòng 973
tạp 969
mục 967
pro@@ 967
dạy 963
cu@@ 962
power 962
sợ 962
phủ 960
nổi 958
vệ 957
đạt 957
me@@ 956
thí 955
means 954
6 953
vẻ 953
đứng 953
mắt 949
kỹ 948
food 947
luật 947
side 947
thúc 947
căn 946
&#91; 945
Internet 945
su@@ 944
sẻ 943
&#93; 941
body 939
bu@@ 939
kh@@ 939
ling 938
million 938
xung 938
lệ 937
d 936
mẫu 936
ma@@ 935
ta@@ 935
tối 935
My 933
lịch 932
men 932
ô 928
become 925
x 924
đọc 922
bàn 921
home 920
son 920
j@@ 919
il@@ 917
lớp 917
Cảm 916
maybe 916
thinking 915
les 914
king 912
kỷ 911
led 909
yếu 909
op@@ 907
took 907
đô 903
space 900
trụ 899
One 897
ent 897
h 897
khắp 895
quy 894
trông 894
tiết 893
chương 892
everything 892
ag@@ 890
five 888
khoẻ 887
room 887
ngồi 885
vui 885
bố 884
chạy 884
om@@ 884
Do 882
future 881
gái 881
quite 881
cậu 878
phút 878
cuốn 877
says 877
am@@ 876
mối 875
making 871
comes 868
buổi 866
social 866
au@@ 865
trợ 865
best 864
hầu 864
number 863
suốt 861
second 860
chắn 859
enough 859
getting 855
kiện 855
mu@@ 853
lives 852
trúc 850
biển 849
small 848
ra@@ 847
ẩn 847
sắc 846
ant 845
da 845
lo 845
chung 842
ngôn 842
tra 842
design 841
She 839
energy 839
ol@@ 839
Why 838
mua 838
bo@@ 835
kiểu 834
ích 834
Vâng 831
der 831
doanh 831
sư 831
These 830
Phi 828
Tất 828
sense 828
ways 827
7 825
cửa 825
vận 824
áp 824
times 823
ask 822
15 821
gu@@ 821
khám 819
c 818
ch 818
ngạc 818
xét 815
cánh 814
xúc 813
sở 811
happened 808
left 807
lâu 806
thoại 806
/ 805
pe@@ 805
ràng 805
bán 804
countries 804
tuần 804
fi@@ 803
tic 803
tỉ 803
for@@ 801
hồi 801
hiểm 799
ver@@ 799
set 798
probably 797
tu@@ 796
dollars 795
ir@@ 794
without 793
1@@ 792
case 792
ca@@ 791
cấu 791
makes 791
nhiệm 790
talking 790
ne@@ 789
ks 787
told 787
Let 784
phức 782
ce 781
kích 780
science 779
build 778
thiên 777
chuyên 773
chụp 773
cung 773
experience 773
nằm 772
nhập 771
learn 767
4@@ 766
Ở 766
cells 765
pretty 765
ot@@ 764
ance 763
ke 763
moment 761
while 761
Tr@@ 759
ans 759
ung 759
ngôi 758
ter@@ 758
bóng 757
băng 757
Sau 756
ine 756
thái 756
cạnh 755
interesting 755
such 755
across 754
York 753
ha@@ 753
phí 752
happen 751
dy 750
saw 749
simple 749
9 748
pre@@ 748
als 746
city 745
For 743
viện 743
độc 743
hữu 742
kẻ 741
car@@ 739
ge@@ 739
hạnh 739
building 738
pri@@ 738
ngành 737
ity 736
ves 736
inter@@ 735
living 734
book 733
chứ 733
hoà 733
asked 732
chỗ 731
mo@@ 730
coming 729
sure 729
trưởng 729
per@@ 728
thập 727
vẽ 727
half 726
Here 724
Ma@@ 724
khủng 724
hand 722
pi@@ 722
te 722
đa 722
dung 721
stuff 720
hard 719
ally 716
family 716
chuẩn 713
40 712
anything 712
else 712
inside 712
bác 711
form 711
happens 709
Xin 708
thiếu 708
ghi 707
goes 707
Cô 706
phúc 706
quý 706
th 706
ho@@ 704
Thật 703
process 701
8 700
hoạ 700
later 700
chịu 699
land 698
tấm 698
ec@@ 697
xanh 697
xin 697
du@@ 696
ong 696
top 696
art 695
ability 694
hề 694
niệm 694
reason 694
seen 694
lắng 693
As 692
Nên 691
care 691
phạm 691
tức 691
days 690
ins 690
po@@ 689
tệ 689
ban 688
having 688
hi@@ 688
sẵn 688
No 686
khăn 686
nhiêu 686
tái 686
Sự 684
yet 684
problems 682
b 681
hơi 680
no@@ 680
sắp 680
mar@@ 679
Y@@ 678
đau 676
Cái 674
Thực 673
chống 673
lạ 673
trai 673
music 672
&amp; 671
mặc 671
Giờ 670
health 669
ru@@ 669
tri@@ 669
lạc 668
business 667
ma 667
man@@ 667
sa@@ 667
single 667
thất 667
play 665
wrong 665
cải 663
dựa 663
ic 661
lu@@ 661
châu 660
5@@ 659
mong 659
đóng 659
Như 656
words 655
xử 655
bad 654
7@@ 653
car 653
looked 653
myself 653
young 652
trực 651
high 650
mind 650
Al@@ 649
is@@ 649
move 648
project 648
saying 648
lựa 647
often 647
tim 646
bánh 645
computer 644
ur@@ 644
ước 644
3@@ 643
someone 641
tổng 641
hậu 640
ideas 640
within 640
far 639
line 639
đội 639
game 638
whether 636
nội 635
ses 635
billion 634
khắc 634
possible 633
mật 632
picture 632
public 632
im@@ 631
All 630
tỷ 630
chăm 629
vượt 629
12 628
hộ 625
pa@@ 625
toà 625
once 624
tầm 624
xấu 624
dần 623
so@@ 623
language 622
Ý 622
ations 621
child 621
community 621
answer 620
Làm 619
gửi 619
thiện 619
Africa 618
hạt 618
hứng 618
6@@ 617
cha 616
robot 616
Okay 615
both 615
gets 615
global 615
control 614
matter 614
Để 613
nothing 612
nguy 611
read 611
re 610
true 610
tive 609
Re@@ 608
ones 608
face 606
lưu 606
ates 605
trạng 605
Ấn 605
almost 604
nhiệt 604
com@@ 603
cr@@ 603
danh 603
imagine 603
lãnh 603
sang 601
works 601
đột 601
chiều 600
keep 599
run 599
over@@ 598
the@@ 598
dầu 597
ness 597
ảo 596
heard 595
hu@@ 595
hy 594
basically 592
X@@ 591
built 591
niềm 590
per 590
ngoại 589
guy 588
trans@@ 588
tội 588
cận 586
est 586
hope 586
Ph@@ 585
nghèo 585
ps 584
history 583
looks 582
nạn 582
stories 582
group 581
piece 581
res 581
already 580
decided 580
night 580
kính 579
word 579
Earth 578
Mar@@ 578
ating 578
chi@@ 578
chữa 577
ca 576
der@@ 576
dấu 576
đấu 576
Châu 575
job 575
Độ 573
research 572
đẩy 572
United 571
though 571
8@@ 570
amazing 570
bring 570
min@@ 570
cổ 568
six 568
kéo 566
nỗi 566
ons 566
remember 566
taking 566
thách 564
ors 563
tố 562
đen 562
sion 561
couple 560
sti@@ 560
— 560
khách 559
tắc 559
gh@@ 558
ngược 558
thủ 558
months 557
order 557
ments 556
wasn 556
imp@@ 555
ống 555
et 554
giấy 554
beautiful 553
education 553
z 552
nuôi 551
ry 551
An@@ 549
government 548
minutes 548
phi 548
25 547
became 547
friends 546
open 546
bại 545
under 545
woman 545
Tây 544
head 544
share 544
until 544
Su@@ 543
ary 543
ci@@ 543
chữ 542
des 542
sub@@ 542
tra@@ 542
quản 541
par@@ 540
universe 540
wi@@ 540
nature 538
society 538
Google 537
lĩnh 536
nửa 536
soát 536
C 535
learned 535
Oh 534
el 534
heart 534
mb@@ 534
tiện 534
do@@ 533
ful 533
lỗi 533
mon@@ 533
mắc 533
ou@@ 533
everybody 532
hoạch 532
ourselves 532
created 531
hát 531
gồm 530
ngủ 530
nhiễm 530
themselves 530
China 529
turn 529
exactly 528
ms 528
9@@ 527
States 526
tốc 526
khiển 524
lí 524
sts 524
sóc 524
tả 524
cắt 523
dương 523
huge 522
mơ 522
ic@@ 521
ence 519
har@@ 519
hại 519
completely 518
nghi 518
gen 517
giết 517
places 516
study 515
80 514
happening 514
60 513
bày 513
khối 513
quen 513
thẳng 513
cancer 512
knew 511
lưới 511
American 510
Gi@@ 510
Mọi 510
cử 510
dây 510
front 510
sing 510
chiếu 509
hours 509
planet 509
quân 509
đích 509
đông 509
level 508
na@@ 508
ler 507
questions 507
state 507
um 507
đức 506
thấp 505
Con 504
thi 504
Kh@@ 502
shows 502
áo 502
đá 502
lái 501
ul@@ 501
bầu 500
kinds 500
te@@ 500
ten@@ 500
dòng 499
niên 499
tàu 499
environment 498
model 498
nhờ 498
somebody 498
hear 497
house 497
isn 497
phóng 497
Chỉ 496
ngờ 496
w 496
đổ 496
dàng 495
itself 495
khai 495
chấp 494
ice 494
mp@@ 494
name 493
against 492
bốn 492
cư 492
cười 492
ngắn 492
rối 492
xếp 492
mê 491
đêm 491
col@@ 490
ea@@ 490
gốc 490
stop 489
ws 489
gấp 488
phong 488
sta@@ 488
sàng 488
ties 487
worked 487
everyone 486
med 486
nông 486
đem 486
tận 485
Then 484
den@@ 484
others 484
war 483
đỡ 483
Ar@@ 482
DNA 481
bạo 481
giây 481
past 481
Qu@@ 480
difference 480
since 480
hoa 479
kỉ 479
lắm 479
students 479
ce@@ 478
sân 478
view 478
web 478
In@@ 477
India 477
Với 477
trách 477
vai 477
2@@ 476
fe@@ 476
gave 475
gắn 475
ck 474
company 474
ator 473
pu@@ 473
ving 473
cân 472
sometimes 472
ob@@ 471
t-@@ 471
cáo 470
ches 469
entire 469
hồ 469
rather 469
sound 469
Rồi 468
gra@@ 467
mother 466
ngàn 466
table 466
America 465
changed 465
da@@ 465
phẫu 465
tôn 465
air 464
couldn 463
he@@ 463
large 463
thousands 463
ba@@ 462
d-@@ 462
news 462
turns 462
ze 462
sho@@ 461
hài 460
particular 460
God 459
based 459
xuyên 459
đợi 458
200 456
phone 456
ls 455
must 455
nam 455
won 455
bí 454
chim 454
disease 454
early 453
outside 453
siêu 453
and@@ 452
ay 452
chuyến 452
figure 452
11 451
ga@@ 451
learning 451
nhảy 451
powerful 451
thụ 451
áng 451
De@@ 450
century 450
chị 450
mã 450
ấn 450
culture 449
during 449
dừng 449
takes 449
happy 448
kĩ 448
population 448
pos@@ 448
ve@@ 448
ali@@ 447
ký 446
màn 446
tation 445
giai 444
nghị 444
Di@@ 443
systems 443
đảm 443
et@@ 442
tầng 442
lao 440
species 440
ổn 440
HIV 439
gen@@ 439
hấp 439
lan 439
low 439
tải 439
ả 439
spend 438
ang 437
ff@@ 437
free 436
instead 436
test 436
ey 435
men@@ 435
sh 435
third 435
least 434
machine 434
phổ 434
Z@@ 433
guys 433
id 433
0s 432
ster 432
19@@ 431
U.S. 431
ats 431
lots 431
ngs 431
r 431
Ro@@ 430
khởi 429
natural 429
animals 427
cell 427
ngăn 427
rừng 427
Mo@@ 426
nhắc 426
yourself 426
OK 425
economic 425
realized 425
đo 425
Or 424
size 424
chỉnh 423
dec@@ 423
easy 423
fu@@ 423
oil 423
ton 423
tù 423
At 422
góc 422
khái 422
self-@@ 422
given 421
thải 421
ver 421
B 420
ạ 420
Tuy 419
along 419
team 419
hút 418
hộp 417
needed 417
nghiêm 417
behind 416
war@@ 416
dly 415
món 415
Được 415
Nam 414
luyện 414
sive 414
difficult 413
grow 413
óc 413
simply 412
0@@ 411
môn 411
ari@@ 410
felt 410
khuôn 410
ki@@ 410
nu@@ 410
walk 410
à 410
Car@@ 409
Nh@@ 409
chuột 409
friend 409
parents 409
Âu 409
Còn 408
can@@ 408
cập 408
giàu 408
image 408
lá 408
media 408
needs 408
ose 408
tín 408
ồn 408
Ví 407
18 406
father 406
finally 406
D 405
certain 405
thơ 405
close 404
companies 404
ge 404
lation 404
ngân 404
ori@@ 404
cor@@ 403
ked 403
key 403
paper 403
sted 403
under@@ 403
coi 402
moving 402
ved 402
già 401
liệt 401
ming 401
leave 400
act 399
ng 399
phận 399
thắng 399
tuyến 399
đám 399
500 398
G 398
TV 398
feet 398
turned 398
tấn 398
18@@ 397
bri@@ 397
go@@ 397
taken 397
ying 397
ủng 396
R 395
zing 395
Hoa 394
area 394
tai 394
black 393
parts 393
political 393
trừ 393
value 393
met 392
nh 392
ters 392
trao 392
People 391
full 391
chứa 390
we@@ 390
wing 390
90 389
TED@@ 389
rest 389
Chúa 388
huỷ 388
hẳn 388
nặng 388
seeing 388
đảo 388
đỏ 388
Cho 387
ents 387
spent 387
Câu 386
perhaps 386
ser@@ 386
vân 386
eat 385
mềm 385
dậy 384
enti@@ 384
mấy 384
nóng 384
Mi@@ 383
eyes 383
local 383
phù 383
field 382
stage 382
David 381
cannot 381
middle 381
hands 380
inf@@ 380
mạch 380
cal@@ 379
chóng 379
quyển 379
zed 379
Bắc 378
cháu 378
ning 378
điển 378
Hiện 377
To@@ 377
buộc 377
thiệu 377
trùng 377
dưỡng 376
ia 376
mùa 376
mẽ 376
scale 376
seven 376
sóng 376
$ 375
70 375
Trái 375
cost 375
uống 375
growth 374
hạ 374
khán 374
knowledge 374
linh 374
out@@ 374
quickly 374
.000 373
amount 373
began 373
cities 373
ev@@ 373
sed 373
thảo 373
wonderful 373
beginning 372
books 372
chủng 372
Me@@ 371
ad 371
longer 371
death 370
els 370
hãi 370
máu 370
rời 370
Công 369
Ta 369
dõi 369
tly 369
up@@ 369
ley 368
speak 368
tảng 368
behavior 367
ner 367
tồi 367
week 367
điên 367
Nhà 366
loạn 366
lộ 366
sơ 366
terms 366
Kỳ 365
To 365
Từ 365
complex 365
đáp 365
Is 364
eight 364
ương 364
S 363
die 363
f 363
na 363
Yeah 362
born 362
lost 362
lầm 362
ces 361
cre@@ 361
cũ 361
lan@@ 361
step 361
vững 361
Hu@@ 360
chờ 360
ck@@ 360
known 360
mắn 360
song 360
str@@ 360
John 359
Liệu 359
ground 359
góp 359
sửa 359
Afghanistan 358
Bu@@ 358
buồn 358
ear@@ 358
ke@@ 358
write 358
ốt 358
Ai 357
Co@@ 357
common 357
giving 357
ker 357
ác 357
ned 356
tw@@ 356
Lu@@ 354
Rất 354
Vào 354
ens 354
carbon 353
du 353
images 353
khoản 353
khổng 353
miễn 353
thưởng 353
tường 353
Thứ 352
Yes 352
cal 352
camera 352
lồ 352
super@@ 352
tránh 352
ard 351
ching 351
ders 351
either 351
hold 351
tried 350
Mỗi 349
Our 349
Some 349
ining 349
solution 349
tional 349
wa@@ 349
xu 349
deal 348
đèn 348
199@@ 347
chàng 347
ite 347
tổn 347
ưu 347
Li@@ 346
bang 346
bảng 346
morning 346
mái 346
ne 346
tho@@ 346
So@@ 345
action 345
box 345
fly 345
ics 345
personal 345
ân 345
đói 345
average 344
forward 344
lạnh 344
market 344
sur@@ 344
ined 343
attention 342
lab 342
lẫn 342
pay 342
ss 342
tan 342
20@@ 341
cơn 341
diệu 341
fil@@ 341
reality 341
rút 341
tộc 341
weeks 341
đỉnh 341
changes 340
kho@@ 340
sitting 340
trắng 340
tờ 340
ơi 340
ber@@ 339
green 339
growing 339
mảnh 339
solve 339
Con@@ 338
online 338
ys 338
force 337
telling 337
wouldn 337
Ngày 336
ang@@ 336
nhu 336
phỏng 336
ther 336
Đông 336
Đúng 336
đào 336
developed 335
fear 335
núi 335
tiểu 335
whatever 335
comp@@ 334
interested 334
opportunity 334
ani@@ 333
buy 333
kim 333
tốn 333
ators 332
brought 332
economy 332
feeling 332
ức 332
La@@ 331
id@@ 331
ju@@ 331
Be@@ 330
Bà 330
English 330
On 330
Se@@ 330
board 330
girl 330
gone 330
hi 330
hảo 330
ies 330
trận 330
giỏi 329
late 329
lin@@ 329
àn 329
cri@@ 328
fla@@ 328
giọng 328
physical 328
quên 328
Si@@ 327
bề 327
oo@@ 327
trồng 327
wor@@ 327
lar 326
quảng 326
rơi 326
seems 326
trì 326
watch 326
Hồi 325
animal 325
film 325
tools 325
Just 324
Na@@ 324
changing 324
voice 324
ality 323
fa@@ 323
ship 323
writing 323
ổ 323
10@@ 322
13 322
14 322
alone 322
br@@ 322
sions 322
ôi 322
Ng@@ 321
chạm 321
issue 321
khuẩn 321
prot@@ 321
structure 321
ám 321
Chính 320
aren 320
ee@@ 320
poor 320
bật 319
bền 319
creating 319
developing 319
ill 319
individual 319
micro@@ 319
nghìn 319
realize 319
stri@@ 319
vốn 319
đương 319
asking 318
blo@@ 318
cầm 318
mãi 318
od@@ 318
phấn 318
sánh 318
16 317
bio@@ 317
material 317
ns 317
numbers 317
ring 317
short 317
tiềm 317
êu 317
Ho@@ 316
chấm 316
fast 316
pe 316
challenge 315
mer@@ 315
running 315
wrote 315
chiếm 314
cỡ 314
khoá 314
lương 314
ously 314
playing 314
produce 314
ran@@ 314
scientists 314
tically 314
v 314
vo@@ 314
ôn 314
hoảng 313
incredible 313
mời 313
Đại 313
Can 312
Năm 312
access 312
khích 312
stand 312
ốc 312
climate 311
hiển 311
starting 311
understanding 311
Sh@@ 310
bữa 310
humans 310
hôn 310
mental 310
L 309
World 309
fied 309
focus 309
girls 309
nắm 309
os 309
phối 309
E 308
Facebook 308
Le@@ 308
Right 308
audience 308
fully 308
làng 308
lửa 308
vàng 308
Chinese 307
Ra@@ 307
generation 307
ko 307
lt 307
save 307
thịt 307
ấm 307
millions 306
ngừng 306
ut 306
vĩ 306
xương 306
fun 305
ghế 305
sex 305
ther@@ 305
vers 305
vỡ 305
âu 305
bed 304
hào 304
nghỉ 304
tách 304
điệu 304
chuỗi 303
hỗ 303
lic@@ 303
quần 303
ar 302
dường 302
literally 302
nổ 302
thi@@ 302
acy 301
forms 301
khẩu 301
rate 301
risk 301
vợ 301
ục 301
clear 300
im 300
ines 300
đừng 300
biên 299
chảy 299
ended 299
fish 299
kịch 299
sót 299
đằng 299
Bo@@ 298
areas 298
blue 298
dra@@ 298
ick 298
product 298
seem 298
tal@@ 298
us@@ 298
ối 298
anyone 297
cli@@ 297
games 297
program 297
tal 297
000 296
Trên 296
clu@@ 296
gives 296
ist 296
knows 296
loạt 296
normal 296
ren@@ 296
sớm 296
ế 296
Iran 295
che 295
innovation 295
network 295
thoát 295
tics 295
ack@@ 294
ine@@ 294
tô 294
y-@@ 294
ăng 294
ốn 294
ble 293
chậm 293
died 293
discovered 293
gió 293
protein 293
rec@@ 293
tru@@ 293
àng 293
Ba@@ 292
chồng 292
ect 292
kid 292
mer 292
thank 292
California 291
South 291
T 291
Trước 291
experiment 291
hundreds 291
ngly 291
patient 291
patients 291
type 291
ạo 291
cool 290
sạch 290
tàn 290
tắt 290
By 289
cut 289
nice 289
result 289
virus 289
Je@@ 288
Lo@@ 288
Vấn 288
cars 288
teach 288
ách 288
Mc@@ 287
air@@ 287
modern 287
oh 287
showed 287
theory 287
Ồ 287
M 286
cho@@ 286
gợi 286
ical 286
nghề 286
suất 286
0,000 285
Not 285
dre@@ 285
kê 285
lặp 285
ow@@ 285
St@@ 284
bè 284
ven 284
bar@@ 283
bottom 283
dĩ 283
il 283
quỹ 283
eye 282
khứ 282
sha@@ 282
tion@@ 282
ven@@ 282
white 282
ep@@ 281
especially 281
ism 281
sal@@ 281
Cách 280
London 280
gar@@ 280
phê 280
pictures 280
allow 279
blood 279
chu@@ 279
dead 279
development 279
giấc 279
ig@@ 279
lối 279
lỗ 279
materials 279
movement 279
okay 279
sto@@ 279
trưng 279
ép 279
bi 278
center 278
impact 278
incredibly 278
ir 278
potential 278
relationship 278
yes 278
Chris 277
Po@@ 277
explain 277
khổ 277
success 277
surface 277
talked 277
teachers 277
300 276
connected 276
industry 276
trại 276
túi 276
ạt 276
O 275
den 275
ged 275
nhé 275
sk@@ 275
support 275
sông 275
trữ 275
tán 275
website 275
Har@@ 274
ball 274
ects 274
meet 274
ngại 274
onto 274
present 274
star@@ 274
ut@@ 274
Ri@@ 273
ack 273
ots 273
tiny 273
Ju@@ 272
No@@ 272
ell 272
hor@@ 272
quang 272
absolutely 271
involved 271
pan@@ 271
resources 271
soon 271
viễn 271
ơ 271
ably 270
baby 270
hea@@ 270
nguyện 270
ory 270
sters 270
thước 270
tical 270
ắn 270
AIDS 269
chance 269
class 269
dặm 269
eating 269
groups 269
issues 269
kiệm 269
ocean 269
stress 269
đăng 269
Cám 268
Israel 268
Nói 268
cent 268
cờ 268
haven 268
law 268
my@@ 268
ster@@ 268
ền 268
1.@@ 267
cur@@ 267
gener@@ 267
hit 267
pl@@ 267
uni@@ 267
begin 266
ear 266
shape 266
sounds 266
ô@@ 266
Đầu 266
Com@@ 265
Mu@@ 265
Sa@@ 265
Việc 265
ages 265
ently 265
sỹ 265
worth 265
ội 265
17 264
available 264
chó 264
deep 264
lose 264
nâng 264
sen@@ 264
sleep 264
đuổi 264
Hay 263
bia 263
bơi 263
cen@@ 263
cy@@ 263
designed 263
kháng 263
mine 263
schools 263
Iraq 262
color 262
kém 262
our@@ 262
technologies 262
í 262
24 261
Europe 261
beyond 261
democracy 261
ghép 261
journey 261
kes 261
major 261
nhắn 261
position 261
strong 261
happiness 260
hour 260
message 260
situation 260
thăm 260
ật 260
cà 259
device 259
em@@ 259
miles 259
phiên 259
send 259
slide 259
West 258
choice 258
cra@@ 258
lived 258
pic@@ 258
rules 258
sốt 258
vision 258
ban@@ 257
flo@@ 257
projects 257
recently 257
road 257
thở 257
violence 257
Ti@@ 256
fer@@ 256
khoảnh 256
lar@@ 256
thảm 256
tor 256
va 256
Bill 255
K 255
Ne@@ 255
P 255
hundred 255
quality 255
rẻ 255
ths 255
vỏ 255
Ber@@ 254
ative 254
door 254
map 254
nhật 254
nỗ 254
street 254
truth 254
vết 254
ward 254
bur@@ 253
cer@@ 253
digital 253
e-@@ 253
individuals 253
shed 253
thoả 253
tives 253
tàng 253
wish 253
Bar@@ 252
approach 252
becomes 252
bọn 252
dri@@ 252
likely 252
list 252
lặng 252
national 252
ste@@ 252
tells 252
ào 252
3D 251
office 251
pas@@ 251
predic@@ 251
sáu 251
ồng 251
Brazil 250
Ki@@ 250
Nhật 250
ants 250
che@@ 250
code 250
cou@@ 250
creative 250
dic@@ 250
email 250
guess 250
lọc 250
minute 250
putting 250
spread 250
-year-old 249
Là 249
bigger 249
char@@ 249
gr@@ 249
hùng 249
memory 249
month 249
ready 249
stay 249
ture 249
át 249
Don 248
First 248
Mon@@ 248
Ni@@ 248
din@@ 248
gt 248
inten@@ 248
walking 248
,@@ 247
East 247
Mexico 247
Wi@@ 247
bal@@ 247
bodies 247
bờ 247
coun@@ 247
dark 247
exp@@ 247
hoang 247
ited 247
nhẹ 247
town 247
điệp 247
ần 247
After 246
Maybe 246
ane 246
cause 246
ess 246
fight 246
ft 246
lity 246
o-@@ 246
reasons 246
sel@@ 246
similar 246
tend 246
tròn 246
xoay 246
effect 245
ene@@ 245
thu@@ 245
é 245
ùng 245
Of 244
break 244
medical 244
ray 244
ưa 244
Every 243
cru@@ 243
evidence 243
fall 243
meaning 243
mùi 243
ngẫu 243
results 243
rich 243
smart 243
teacher 243
trống 243
voi 243
đẳng 243
Where 242
ched 242
cop@@ 242
dd@@ 242
dro@@ 242
lục 242
sm@@ 242
special 242
ớ 242
ately 241
bò 241
ered 241
pla@@ 241
towards 241
Đất 241
đam 241
Bộ 240
Lúc 240
doạ 240
drive 240
favorite 240
hổ 240
lea@@ 240
everywhere 239
lines 239
ập 239
ồ 239
,000 238
Canada 238
basic 238
crazy 238
develop 238
mat@@ 238
mission 238
scientific 238
starts 238
taught 238
tle 238
certainly 237
eri@@ 237
income 237
lính 237
software 237
thuận 237
tic@@ 237
Theo 236
ber 236
biggest 236
bs 236
bul@@ 236
computers 236
examples 236
measure 236
mp 236
pain 236
row 236
sent 236
thác 236
21 235
cat@@ 235
dr@@ 235
fo@@ 235
leaders 235
moral 235
serve 235
thừa 235
tri 235
zation 235
Bản 234
Fi@@ 234
Ngay 234
cấy 234
interest 234
lành 234
perfect 234
rác 234
sea 234
đoàn 234
đựng 234
197@@ 233
GDP 233
ana 233
moved 233
obviously 233
sa 233
Cuối 232
Gu@@ 232
Hai 232
ace 232
alized 232
back@@ 232
boy 232
drug 232
ny 232
ore 232
particularly 232
thai 232
thuỷ 232
trích 232
198@@ 231
showing 231
sit 231
van 231
ã 231
communities 230
loved 230
nhuận 230
non-@@ 230
oun@@ 230
safe 230
add 229
chặt 229
faster 229
giảng 229
họp 229
lead 229
positive 229
Vi@@ 228
With 228
dream 228
high-@@ 228
ol 228
thang 228
wait 228
waste 228
đạp 228
Ha@@ 227
Kenya 227
amp 227
cultural 227
emp@@ 227
ess@@ 227
fire 227
general 227
lược 227
ner@@ 227
response 227
ái 227
Đức 227
đe 227
&apos;@@ 226
Nor@@ 226
decisions 226
indeed 226
listen 226
lãng 226
miếng 226
nhựa 226
plan 226
ư 226
choose 225
flu@@ 225
lắp 225
region 225
student 225
Nào 224
San 224
follow 224
minds 224
oc@@ 224
ort 224
ran 224
several 224
source 224
tes 224
totally 224
á 224
cks 223
cãi 223
drugs 223
giám 223
om 223
tan@@ 223
tool 223
ì 223
Cuộc 222
Even 222
brains 222
chặn 222
further 222
oper@@ 222
reach 222
worse 222
ạn 222
ầm 222
ời 222
Are 221
Da@@ 221
H 221
cap@@ 221
cul@@ 221
ency 221
illi@@ 221
khấu 221
lễ 221
mừng 221
ngoái 221
nine 221
peace 221
pen@@ 221
tật 221
uses 221
watching 221
Đừng 221
ỉ 221
ị 221
Hoặc 220
Mà 220
chào 220
content 220
ences 220
mù 220
ngang 220
ping 220
ss@@ 220
đòi 220
1,@@ 219
Ja@@ 219
Look 219
Ta@@ 219
cam 219
huống 219
hy@@ 219
training 219
yên 219
400 218
Cũng 218
ecting 218
named 218
nobody 218
respon@@ 218
rou@@ 218
thao 218
thận 218
ê 218
North 217
bl@@ 217
cl@@ 217
diệt 217
hương 217
jobs 217
shown 217
trust 217
Cậu 216
activity 216
allowed 216
bra@@ 216
cản 216
emer@@ 216
grew 216
ill@@ 216
largest 216
mây 216
mại 216
pur@@ 216
race 216
sổ 216
wants 216
ically 215
mes 215
mét 215
ngu@@ 215
radio 215
s-@@ 215
screen 215
wife 215
ờ 215
2000 214
Thay 214
Twitter 214
Who 214
anti@@ 214
blog 214
chép 214
dance 214
including 214
kill 214
math 214
meant 214
standing 214
studies 214
sợi 214
wel@@ 214
úng 214
đống 214
Einstein 213
Most 213
Wal@@ 213
continue 213
fine 213
hand@@ 213
objects 213
pros@@ 213
sses 213
suddenly 213
ten 213
tor@@ 213
trees 213
village 213
vong 213
Col@@ 212
anybody 212
cặp 212
gan 212
notice 212
one-@@ 212
points 212
sky 212
specific 212
squ@@ 212
tràn 212
vú 212
N 211
buildings 211
cám 211
engineering 211
ick@@ 211
ng-@@ 211
products 211
wind 211
êm 211
đùa 211
Americans 210
Chẳng 210
Par@@ 210
crisis 210
ei@@ 210
eventually 210
expect 210
ges 210
mập 210
nhằm 210
sign 210
thấu 210
traditional 210
tỏ 210
version 210
wer 210
ới 210
Ex@@ 209
Nhiều 209
Pro@@ 209
Q@@ 209
context 209
cát 209
cứng 209
ey@@ 209
lies 209
lights 209
movie 209
phiếu 209
thù 209
tuyên 209
Đối 209
compassion 208
conditions 208
cover 208
demo@@ 208
expensive 208
fy 208
ites 208
period 208
plant 208
plants 208
search 208
truly 208
ấp 208
among 207
bom 207
cher 207
connect 207
finding 207
hospital 207
khía 207
ll 207
pick 207
poverty 207
que 207
revolution 207
stor@@ 207
win 207
win@@ 207
wn 207
allows 206
anymore 206
ash 206
bối 206
cases 206
chán 206
cro@@ 206
far@@ 206
killed 206
mass 206
mực 206
ners 206
nhịp 206
raise 206
sion@@ 206
súng 206
trào 206
ại 206
Em 205
George 205
Today 205
conflict 205
ele@@ 205
extremely 205
hiếm 205
off@@ 205
ome 205
solutions 205
sụp 205
tiêm 205
tors 205
ạc 205
ừng 205
45 204
ADN 204
Washington 204
artist 204
aw@@ 204
bắn 204
conversation 204
est@@ 204
excited 204
fer 204
gas 204
models 204
non@@ 204
robots 204
series 204
sun 204
tá 204
wall 204
ê@@ 204
Bi@@ 203
Dù 203
Jo@@ 203
Tur@@ 203
a-@@ 203
alive 203
cation 203
hà 203
politics 203
provide 203
service 203
skin 203
sm 203
solar 203
tia 203
tro@@ 203
ends 202
kept 202
kêu 202
lower 202
ngọn 202
reading 202
rise 202
vir@@ 202
ầy 202
Mẹ 201
continu@@ 201
deli@@ 201
exciting 201
famous 201
foot 201
iled 201
impro@@ 201
khung 201
liền 201
móc 201
page 201
seconds 201
sell 201
skills 201
sorts 201
sy@@ 201
wards 201
Paul 200
Pháp 200
béo 200
contr@@ 200
evolution 200
extraordinary 200
fin@@ 200
her@@ 200
hole 200
listening 200
machines 200
role 200
societies 200
stic 200
triết 200
Bằng 199
Charles 199
En@@ 199
Về 199
Which 199
bro@@ 199
cla@@ 199
côn 199
freedom 199
hot 199
hoàng 199
lừa 199
prom@@ 199
successful 199
wit@@ 199
2008 198
University 198
cel@@ 198
cing 198
cục 198
don@@ 198
ely 198
ery 198
goal 198
gỗ 198
pattern 198
pp@@ 198
đua 198
CO2 197
Phải 197
bas@@ 197
college 197
disp@@ 197
families 197
gre@@ 197
production 197
publi@@ 197
self 197
thầy 197
thờ 197
Imagine 196
Liên 196
cally 196
co 196
dad 196
dối 196
faces 196
familiar 196
khảo 196
mic 196
ome@@ 196
plan@@ 196
security 196
Wh@@ 195
bậc 195
hối 195
mạc 195
ssed 195
thoải 195
đập 195
ộc 195
Or@@ 194
Thái 194
aware 194
bunch 194
căng 194
effective 194
ging 194
higher 194
neurons 194
nấm 194
pin 194
pr@@ 194
refl@@ 194
vari@@ 194
ất 194
Phần 193
bon@@ 193
chốt 193
grand@@ 193
ha 193
hè 193
impossible 193
ky 193
kí 193
lũ 193
main 193
mưa 193
ngưỡng 193
pieces 193
press 193
ro 193
ấu 193
ắt 193
City 192
above 192
ao 192
ature 192
cking 192
fore@@ 192
gs 192
pping 192
see@@ 192
types 192
usually 192
val@@ 192
weight 192
19 191
Per@@ 191
chối 191
ghts 191
huấn 191
lim@@ 191
ot 191
shing 191
Pa@@ 190
active 190
ah 190
app@@ 190
critical 190
doctors 190
magic 190
ney 190
por@@ 190
site 190
supposed 190
talks 190
written 190
MIT 189
actual 189
doctor 189
hỗn 189
iling 189
larger 189
nal 189
nhũng 189
patterns 189
recognize 189
somewhere 189
tex@@ 189
thuyền 189
trầm 189
táo 189
ây 189
ệ 189
Ba 188
ath 188
becoming 188
connection 188
current 188
greater 188
mỏ 188
object 188
psycho@@ 188
rượu 188
speed 188
teaching 188
va@@ 188
ọt 188
consider 187
ed@@ 187
era 187
fac@@ 187
ghét 187
le-@@ 187
massive 187
mis@@ 187
mì 187
organization 187
ories 187
perspective 187
travel 187
upon 187
vâng 187
ô-@@ 187
Ge@@ 186
Sẽ 186
aging 186
bảy 186
ering 186
hang 186
mor@@ 186
rights 186
150 185
Cam@@ 185
Go@@ 185
Like 185
Ste@@ 185
Those 185
biện 185
funny 185
khuyến 185
multi@@ 185
rắc 185
treatment 185
visual 185
Thuỵ 184
fra@@ 184
ils 184
inv@@ 184
molecules 184
nger 184
pul@@ 184
thousand 184
Your 183
concept 183
date 183
lab@@ 183
ngo@@ 183
nút 183
ound 183
range 183
spec@@ 183
store 183
train 183
ya 183
đắt 183
Hôm 182
atch 182
beauty 182
ff 182
ham 182
ngón 182
somehow 182
Big 181
Western 181
cos@@ 181
esti@@ 181
financial 181
gene 181
genes 181
human@@ 181
jo@@ 181
legs 181
mom 181
shared 181
smaller 181
to-@@ 181
Du@@ 180
Thomas 180
anywhere 180
ate@@ 180
cháy 180
complicated 180
forest 180
hồn 180
older 180
phán 180
pped 180
resi@@ 180
thọ 180
truy 180
two-@@ 180
ỏ 180
15@@ 179
African 179
Michael 179
Tu@@ 179
aci@@ 179
bacteria 179
cian 179
costs 179
ef 179
explo@@ 179
increase 179
organizations 179
plu@@ 179
shot 179
speci@@ 179
tỉnh 179
ài 179
2010 178
Pe@@ 178
Talk 178
babies 178
cep@@ 178
cỏ 178
decades 178
dollar 178
female 178
fundamental 178
healthy 178
humanity 178
ka 178
levels 178
mạo 178
plastic 178
progress 178
remarkable 178
thiểu 178
túc 178
út 178
Ả 178
Nhìn 177
ala@@ 177
beings 177
dangerous 177
essentially 177
gọn 177
hắn 177
lands 177
policy 177
temp@@ 177
ồi 177
75 176
arm 176
forth 176
mũi 176
path 176
săn 176
trứng 176
xoá 176
ành 176
ầu 176
Ru@@ 175
Sao 175
arti@@ 175
cỗ 175
cụt 175
fl@@ 175
giận 175
ide@@ 175
lit@@ 175
medi@@ 175
party 175
pit@@ 175
pol@@ 175
practice 175
protect 175
shi@@ 175
tim@@ 175
tur@@ 175
ực 175
Adam 174
Bro@@ 174
GPS 174
Hầu 174
ank 174
cros@@ 174
dinh 174
equ@@ 174
genetic 174
gl@@ 174
immediately 174
mal@@ 174
mit@@ 174
mobile 174
rap@@ 174
record 174
simp@@ 174
surgery 174
throughout 174
thạch 174
ói 174
ẩm 174
ẻ 174
ột 174
35 173
Au@@ 173
For@@ 173
architecture 173
biology 173
bor@@ 173
bông 173
cha@@ 173
chan@@ 173
creativity 173
dày 173
electricity 173
foun@@ 173
function 173
khát 173
lay 173
performance 173
rủi 173
thiệp 173
thuê 173
track 173
2.@@ 172
acting 172
ases 172
dness 172
draw 172
evolved 172
fantastic 172
iết 172
nấu 172
police 172
prof@@ 172
pull 172
related 172
sil@@ 172
speaking 172
surprising 172
thả 172
wonder 172
xứng 172
đắn 172
ỗi 172
Mặt 171
cột 171
daughter 171
decision 171
exist 171
ish 171
khiếp 171
lộn 171
mai 171
ony 171
tain 171
xong 171
zes 171
đốc 171
ướng 171
10,000 170
From 170
binh 170
bột 170
citizens 170
following 170
giành 170
gotten 170
hước 170
private 170
sustainable 170
television 170
thánh 170
treat 170
amp@@ 169
bãi 169
earlier 169
ection 169
free@@ 169
mò 169
mộ 169
ngũ 169
physics 169
serious 169
truyện 169
tures 169
zz@@ 169
0-@@ 168
ama@@ 168
analy@@ 168
challenges 168
clearly 168
iên 168
len 168
logists 168
phó 168
please 168
services 168
soci@@ 168
thetic 168
understood 168
walked 168
đài 168
ạp 168
Haiti 167
career 167
chẩn 167
down@@ 167
dọc 167
enter@@ 167
ina 167
international 167
leo 167
ple@@ 167
regu@@ 167
thuần 167
waiting 167
xưa 167
yeah 167
za 167
Đã 167
đốt 167
ưng 167
ặt 167
Nigeria 166
are@@ 166
bes 166
chu 166
circu@@ 166
emotional 166
ger 166
helped 166
huyết 166
improve 166
medicine 166
net 166
pass 166
rưỡi 166
strange 166
touch 166
tree 166
tụ 166
unique 166
0 165
2,000 165
Another 165
Los 165
bits 165
bạc 165
direction 165
environmental 165
final 165
fit 165
focused 165
miền 165
of@@ 165
price 165
răng 165
ú 165
Two 164
Un@@ 164
assu@@ 164
cold 164
dep@@ 164
himself 164
invented 164
lating 164
military 164
mát 164
ology 164
sat 164
whose 164
ệt 164
.. 163
Do@@ 163
James 163
Pal@@ 163
acts 163
cations 163
chai 163
chừng 163
complete 163
eria 163
experiments 163
ga 163
head@@ 163
hiến 163
intelligence 163
lin 163
nhấn 163
ném 163
obser@@ 163
posed 163
therefore 163
tặng 163
willing 163
xâm 163
ịch 163
Al 162
Lin@@ 162
ances 162
berg 162
birth 162
blind 162
by@@ 162
choices 162
cốt 162
dị 162
gay 162
gương 162
iến 162
rit@@ 162
stream 162
thy 162
vườn 162
ét 162
đĩa 162
Richard 161
Y 161
ars 161
ced 161
decide 161
directly 161
except 161
khóc 161
recent 161
square 161
subject 161
tha 161
trộn 161
useful 161
values 161
weren 161
Cu@@ 160
National 160
Pakistan 160
creates 160
driving 160
dying 160
mag@@ 160
nhỉ 160
quê 160
slightly 160
syn@@ 160
xạ 160
ắp 160
Harvard 159
ands 159
birds 159
complexity 159
cẩn 159
eth@@ 159
mos@@ 159
near 159
ngài 159
obvious 159
ort@@ 159
person@@ 159
re-@@ 159
sharing 159
task 159
tuỳ 159
xi@@ 159
êng 159
Bal@@ 158
His 158
Lý 158
PM 158
Some@@ 158
comfortable 158
cá@@ 158
etc 158
flow 158
meeting 158
nation 158
networks 158
pes 158
round 158
sli@@ 158
spending 158
vaccine 158
yst@@ 158
ộ 158
196@@ 157
An 157
Dr. 157
clos@@ 157
dent 157
dính 157
inspired 157
instance 157
li 157
miệng 157
nuclear 157
prison 157
quar@@ 157
secret 157
set@@ 157
ty@@ 157
ạng 157
Robert 156
actions 156
ai@@ 156
answers 156
bắc 156
chemical 156
event 156
flying 156
huy 156
lack 156
mber 156
members 156
popular 156
qui@@ 156
rào 156
sun@@ 156
temperature 156
tóc 156
bla@@ 155
boys 155
coffee 155
differences 155
diversity 155
dog 155
fri@@ 155
fron@@ 155
law@@ 155
miêu 155
od 155
paid 155
summer 155
thẩm 155
ure 155
Cơ 154
War 154
ahead 154
bom@@ 154
capacity 154
decade 154
det@@ 154
glass 154
gà 154
lie 154
lỏng 154
mẩu 154
oth 154
reti@@ 154
station 154
tivity 154
tạm 154
wood 154
wr@@ 154
đớn 154
2007 153
Dan 153
Giáo 153
clean 153
dge 153
explore 153
fol@@ 153
greatest 153
hẹn 153
ngầm 153
shares 153
slow 153
speech 153
survive 153
turning 153
tò 153
vit@@ 153
xo@@ 153
á@@ 153
òng 153
đáy 153
ốm 153
Great 152
Many 152
Middle 152
acked 152
artists 152
asks 152
bạch 152
cốc 152
fun@@ 152
grade 152
highly 152
identity 152
meters 152
nhạy 152
offi@@ 152
saving 152
stars 152
states 152
stra@@ 152
streets 152
ti 152
trial 152
tuệ 152
vuông 152
zero 152
ôm 152
Chắc 151
aff@@ 151
ans@@ 151
bread 151
brings 151
causes 151
central 151
diseases 151
fir@@ 151
fying 151
gg@@ 151
held 151
hiệp 151
hạng 151
int 151
mal 151
phones 151
phổi 151
published 151
rac@@ 151
spaces 151
tici@@ 151
various 151
À 151
đậu 151
ộn 151
ambi@@ 150
apped 150
ards 150
concer@@ 150
cường 150
ears 150
foot@@ 150
gri@@ 150
liber@@ 150
male 150
passion 150
preci@@ 150
purpose 150
radi@@ 150
terrible 150
worst 150
đón 150
ải 150
ọc 150
600 149
Chuyện 149
F 149
Giống 149
Thời 149
Times 149
bốt 149
communicate 149
dence 149
forces 149
gging 149
inst@@ 149
istic 149
kiên 149
l-@@ 149
lão 149
noticed 149
produced 149
regi@@ 149
thoảng 149
tây 149
ót 149
Đôi 149
5,000 148
Cực 148
Mĩ 148
Obama 148
bone 148
dàn 148
fli@@ 148
forget 148
ills 148
kin@@ 148
ore@@ 148
quái 148
scientist 148
term 148
Fe@@ 147
Thậm 147
bees 147
bel@@ 147
cour@@ 147
ending 147
ght@@ 147
hằng 147
kers 147
knowing 147
logist 147
lying 147
nét 147
quán 147
sides 147
spi@@ 147
standard 147
thợ 147
trôi 147
trắc 147
wat@@ 147
yl@@ 147
Á 147
áy 147
Instead 146
Lan 146
afraid 146
bổ 146
chấn 146
experiences 146
floor 146
hoại 146
initi@@ 146
lets 146
logic 146
missing 146
necessary 146
ngh@@ 146
nướng 146
passed 146
rain 146
rồ 146
suit 146
trạm 146
twice 146
tóm 146
work@@ 146
ảng 146
ặc 146
Ac@@ 145
Mal@@ 145
NASA 145
Pi@@ 145
Think 145
aid 145
bru@@ 145
corruption 145
fle@@ 145
giày 145
glob@@ 145
iPhone 145
justice 145
leadership 145
len@@ 145
lây 145
ngã 145
oss 145
photograph 145
quét 145
rea@@ 145
significant 145
ữ 145
Ban 144
bing 144
cial 144
cked 144
closer 144
core 144
extra 144
giường 144
hứa 144
institutions 144
join 144
logy 144
low-@@ 144
lẻ 144
mostly 144
mot@@ 144
ngựa 144
ost 144
possibly 144
repe@@ 144
rev@@ 144
san 144
scre@@ 144
sexual 144
stick 144
trouble 144
úp 144
đảng 144
ọn 144
Kinh 143
May 143
basis 143
below 143
bringing 143
collabor@@ 143
devices 143
docu@@ 143
drop 143
khô 143
mates 143
push 143
rep@@ 143
rock 143
shel@@ 143
stopped 143
tric 143
wea@@ 143
đeo 143
1,000 142
Ca@@ 142
Hey 142
Wikipedia 142
X 142
adv@@ 142
autism 142
conference 142
kil@@ 142
lưng 142
meter 142
original 142
tuyết 142
ón 142
Cả 141
Lần 141
San@@ 141
capit@@ 141
chăng 141
colleagues 141
communication 141
flu 141
logical 141
molecule 141
moments 141
mẻ 141
reduce 141
ries 141
sy 141
text 141
ắng 141
ụng 141
2009 140
Take 140
Tor@@ 140
V 140
ace@@ 140
ase 140
dents 140
dies 140
ket@@ 140
mãn 140
played 140
tiếc 140
trade 140
vote 140
ùm 140
đếm 140
Bur@@ 139
Cùng 139
Derek 139
Francisco 139
Kết 139
Paris 139
Steve 139
att@@ 139
carry 139
ction 139
dar@@ 139
gate 139
hom@@ 139
kèm 139
load 139
mèo 139
olu@@ 139
opportunities 139
st-@@ 139
supply 139
traffic 139
tuy 139
Đến 139
ỷ 139
00@@ 138
II 138
Rob@@ 138
Sha@@ 138
Wor@@ 138
accoun@@ 138
ach 138
def@@ 138
dán 138
feed 138
feels 138
hearing 138
helping 138
ink 138
ise 138
lic 138
mini@@ 138
ninh 138
ought 138
ours 138
programs 138
rule 138
structures 138
tail 138
trăng 138
workers 138
ận 138
Ben@@ 137
MRI 137
Nhân 137
bụng 137
consciousness 137
effort 137
eu@@ 137
ght-@@ 137
gói 137
hỏng 137
ial 137
nearly 137
opposite 137
quick 137
shift 137
sou@@ 137
tar@@ 137
tively 137
tám 137
tĩnh 137
wear 137
ính 137
ò 137
ẫy 137
ặn 137
ề 137
Is@@ 136
Khán 136
Martin 136
alle@@ 136
apart 136
ash@@ 136
ble@@ 136
broken 136
cong 136
cycle 136
degrees 136
discu@@ 136
hal@@ 136
hô 136
leading 136
lucky 136
rooms 136
sand 136
studying 136
urban 136
uy@@ 136
wan@@ 136
wed 136
xu@@ 136
Mil@@ 135
Nobel 135
bought 135
bus 135
dã 135
emotions 135
graph 135
iều 135
lations 135
majority 135
ols 135
pressed 135
quà 135
relationships 135
return 135
straight 135
suppor@@ 135
tech 135
tered 135
vation 135
vement 135
yer 135
Bab@@ 134
British 134
Bất 134
Indian 134
acks 134
alo@@ 134
end@@ 134
gỡ 134
husband 134
khuyên 134
lăn 134
pers 134
religion 134
responsible 134
tiệc 134
è 134
ỏi 134
ổi 134
ủ 134
195@@ 133
Have 133
Mark 133
Nghệ 133
alization 133
bar 133
civil 133
conver@@ 133
crime 133
dom@@ 133
duc@@ 133
ected 133
gradu@@ 133
gun 133
hun@@ 133
importantly 133
irs 133
lôi 133
mothers 133
nic@@ 133
read@@ 133
represen@@ 133
ssion 133
thói 133
tissue 133
trần 133
unk 133
vinh 133
ẩy 133
ụ 133
– 133
Actually 132
Cha@@ 132
Her@@ 132
Hoá 132
Man@@ 132
Pr@@ 132
YouTube 132
address 132
agree 132
benefits 132
condition 132
construc@@ 132
cụm 132
engage 132
engine 132
gã 132
interact 132
lang 132
ngu 132
photo 132
prin@@ 132
sc@@ 132
shes 132
star 132
tung 132
én 132
ịt 132
Audience 131
Hel@@ 131
Hội 131
although 131
anyway 131
apply 131
benefit 131
cloud 131
compu@@ 131
determin@@ 131
differently 131
dứt 131
easily 131
entirely 131
facts 131
failure 131
giấu 131
kênh 131
laws 131
lâm 131
lệnh 131
ngon 131
profit 131
rid 131
sian 131
transp@@ 131
wers 131
wh@@ 131
Angeles 130
J 130
Nga 130
check 130
chìm 130
due 130
dò 130
emb@@ 130
gue 130
heo 130
imagination 130
lesson 130
lãm 130
lặn 130
ren 130
stem 130
stone 130
throw 130
65 129
La 129
Manhattan 129
Mr. 129
W 129
achieve 129
ale 129
brea@@ 129
buôn 129
bão 129
dư 129
edge 129
educ@@ 129
esting 129
events 129
giơ 129
gõ 129
hear@@ 129
home@@ 129
ian 129
in-@@ 129
khao 129
mờ 129
oxygen 129
studio 129
wisdom 129
đực 129
ỡ 129
ử 129
ự 129
French 128
Go 128
However 128
Mặc 128
Tom 128
accep@@ 128
atmosphere 128
dao 128
enormous 128
high@@ 128
hư 128
matters 128
nec@@ 128
ograp@@ 128
phiền 128
statistics 128
thuế 128
ằng 128
2005 127
Alzheimer 127
Darwin 127
Dĩ 127
Rập 127
U.K. 127
Vài 127
Women 127
ancient 127
aps 127
ast 127
belief 127
believ@@ 127
cer 127
deeply 127
definition 127
demonstr@@ 127
describe 127
forever 127
gián 127
khoan 127
mam@@ 127
ngọt 127
para@@ 127
raised 127
smell 127
stu@@ 127
thăng 127
trốn 127
worry 127
xy 127
Úc 127
Điển 127
ản 127
ớt 127
23 126
Ad@@ 126
Arab 126
Pla@@ 126
Trường 126
attack 126
bran@@ 126
bó 126
classroom 126
cú 126
cúm 126
cất 126
ened 126
fix 126
foreign 126
hố 126
insi@@ 126
iểu 126
landscape 126
leg@@ 126
mel@@ 126
mệnh 126
note 126
oxytocin 126
pha 126
quí 126
sis 126
ssing 126
su 126
trưa 126
vast 126
vering 126
22 125
Ed@@ 125
Gr@@ 125
Japan 125
Street 125
U 125
Web 125
ama 125
atory 125
creation 125
fashion 125
governments 125
gram 125
ham@@ 125
infrastructure 125
limited 125
link 125
method 125
n. 125
painting 125
pressure 125
random 125
reli@@ 125
responsibility 125
rol@@ 125
suffering 125
sul@@ 125
sàn 125
terri@@ 125
thổi 125
tom@@ 125
total 125
yers 125
à@@ 125
ăm 125
--@@ 124
99 124
Mars 124
abi@@ 124
argument 124
bli@@ 124
break@@ 124
bếp 124
effects 124
exten@@ 124
fascinating 124
fighting 124
finished 124
gic 124
heat 124
hàm 124
received 124
supp@@ 124
tionally 124
tân 124
users 124
wee@@ 124
yed 124
Boston 123
European 123
afford 123
balance 123
bận 123
discover 123
distance 123
dreams 123
dáng 123
eng@@ 123
fair 123
gene@@ 123
integr@@ 123
interaction 123
ion 123
ja@@ 123
ly@@ 123
lõi 123
nho 123
ops 123
photos 123
researchers 123
sector 123
tươi 123
visit 123
ếch 123
ụt 123
40@@ 122
Again 122
Australia 122
Chicago 122
Fri@@ 122
Gần 122
Học 122
Joe 122
Once 122
Sch@@ 122
Sometimes 122
Tri@@ 122
alism 122
aries 122
beat 122
bùng 122
coo@@ 122
cy 122
dược 122
extreme 122
figured 122
identi@@ 122
làn 122
marketing 122
mas@@ 122
non 122
none 122
ped 122
respond 122
ron 122
sey 122
shoes 122
strategy 122
sữa 122
tun@@ 122
verse 122
vis@@ 122
ẹp 122
27 121
Amazon 121
Over 121
Smith 121
Tiếp 121
adults 121
biological 121
bridge 121
compared 121
corner 121
covered 121
creatures 121
deci@@ 121
despite 121
dy@@ 121
equal 121
houses 121
iếu 121
khỉ 121
mate 121
nảy 121
ond 121
quát 121
rét 121
seemed 121
shouldn 121
son@@ 121
thre@@ 121
thri@@ 121
window 121
ù 121
ơ@@ 121
17@@ 120
95 120
Ngh@@ 120
PA 120
Peter 120
affect 120
auth@@ 120
bụi 120
c-@@ 120
conduc@@ 120
cấm 120
formed 120
gla@@ 120
hải 120
i. 120
igh@@ 120
imag@@ 120
keeping 120
loss 120
markets 120
married 120
moves 120
nar@@ 120
ngắm 120
not@@ 120
ote 120
park 120
pat@@ 120
phì 120
rational 120
sưu 120
thẻ 120
transform 120
tắm 120
vege@@ 120
xinh 120
ì@@ 120
Asia 119
CA@@ 119
Hy 119
alize 119
breast 119
capital 119
clo@@ 119
consi@@ 119
deliver 119
dinner 119
discovery 119
fe 119
fuel 119
laptop 119
legal 119
liều 119
lường 119
managed 119
mics 119
perfectly 119
quote 119
respect 119
stuck 119
titude 119
typical 119
ush 119
voices 119
well-@@ 119
ễn 119
Cal@@ 118
Den@@ 118
Did 118
Khoảng 118
Ser@@ 118
ager 118
bank 118
bot@@ 118
calls 118
character 118
collective 118
conscious 118
contribu@@ 118
cưới 118
direc@@ 118
drawing 118
ems 118
frequ@@ 118
grown 118
holding 118
internet 118
necessarily 118
offer 118
organic 118
ota 118
pil@@ 118
reali@@ 118
report 118
smo@@ 118
thern 118
thịnh 118
tou@@ 118
west 118
ùa 118
ố@@ 118
Ab@@ 117
Bang 117
School 117
Would 117
account 117
acking 117
acu@@ 117
asse@@ 117
bat@@ 117
capable 117
catch 117
disa@@ 117
farmers 117
ful@@ 117
golf 117
illustr@@ 117
inci@@ 117
industrial 117
ior 117
ists 117
ized 117
lông 117
ow 117
physi@@ 117
poli@@ 117
rô 117
sin@@ 117
sơn 117
thinks 117
tháp 117
tremendous 117
tí 117
wil@@ 117
Can@@ 116
Eric 116
Ka@@ 116
Rwanda 116
af@@ 116
ain 116
argu@@ 116
chúa 116
cles 116
colors 116
dan 116
easier 116
enter 116
ential 116
failed 116
fairly 116
filled 116
fire@@ 116
heal@@ 116
insects 116
invisible 116
leads 116
mouth 116
nhẫn 116
nở 116
pel@@ 116
possibility 116
rãi 116
shop 116
sick 116
sight 116
sites 116
sung 116
tar 116
target 116
thùng 116
trượt 116
tị 116
vic@@ 116
èn 116
ấ@@ 116
Cộng 115
Ga@@ 115
Thiên 115
Wow 115
X-quang 115
amin 115
construction 115
experts 115
ffi@@ 115
fication 115
ily 115
inch 115
interven@@ 115
investment 115
itable 115
letter 115
lướt 115
mountain 115
muỗi 115
names 115
negative 115
nhắm 115
th-@@ 115
thám 115
thỉnh 115
trục 115
versus 115
ãi 115
Gabby 114
King 114
Vo@@ 114
billions 114
châm 114
click 114
desire 114
digi@@ 114
emotion 114
equipment 114
gain 114
genome 114
giant 114
hate 114
helps 114
indu@@ 114
ize 114
joy 114
khu@@ 114
khôn 114
kín 114
languages 114
nan@@ 114
ngốc 114
notion 114
nur@@ 114
operate 114
peri@@ 114
profound 114
ree@@ 114
scr@@ 114
studied 114
sudden 114
tual 114
tướng 114
tủ 114
watched 114
50@@ 113
Bao 113
England 113
Gra@@ 113
US@@ 113
ased 113
camp@@ 113
childhood 113
comm@@ 113
conta@@ 113
dering 113
efficient 113
faci@@ 113
flies 113
ger@@ 113
giam 113
gro@@ 113
leader 113
liked 113
long@@ 113
mented 113
ngập 113
nàng 113
nốt 113
ous@@ 113
phú 113
pop@@ 113
quãng 113
resp@@ 113
san@@ 113
sec@@ 113
thua 113
whi@@ 113
àu 113
ĩ 113
ảy 113
ỵ 113
16@@ 112
Apple 112
Bài 112
Christi@@ 112
Japanese 112
More 112
Viện 112
apping 112
campaign 112
cating 112
charge 112
collect 112
comb@@ 112
daily 112
define 112
designer 112
detail 112
everyday 112
hidden 112
influence 112
invited 112
khớp 112
mouse 112
opened 112
phạt 112
planning 112
pot@@ 112
rela@@ 112
sla@@ 112
survi@@ 112
three-@@ 112
thính 112
tuý 112
views 112
vot@@ 112
wearing 112
xóm 112
ày 112
ềm 112
2006 111
Bố 111
Green@@ 111
Hơn 111
Mel@@ 111
Very 111
adap@@ 111
background 111
brand 111
card 111
chair 111
compar@@ 111
compe@@ 111
cuộn 111
dio 111
dắt 111
factory 111
generate 111
investi@@ 111
lated 111
leaving 111
legi@@ 111
mark 111
n-@@ 111
oms 111
philosoph@@ 111
phái 111
planets 111
sig@@ 111
steps 111
struc@@ 111
thiệt 111
trained 111
2011 110
Coun@@ 110
Jon@@ 110
Man 110
See 110
Trời 110
activ@@ 110
advantage 110
argue 110
assemb@@ 110
block 110
bong 110
brother 110
businesses 110
cậy 110
degree 110
depression 110
dry 110
electron@@ 110
fill 110
inclu@@ 110
kid@@ 110
lunch 110
mps 110
nity 110
opening 110
paint 110
pal@@ 110
pra@@ 110
puts 110
rau 110
relevant 110
section 110
sol@@ 110
struggle 110
surprise 110
thro@@ 110
tháo 110
tune 110
wer@@ 110
é@@ 110
ênh 110
ó 110
ạch 110
100,000 109
Gates 109
Higgs 109
SW 109
anger 109
anthro@@ 109
bert 109
cortex 109
damage 109
dám 109
ela 109
electrical 109
enjoy 109
essential 109
experienced 109
fold 109
followed 109
gấu 109
increasingly 109
institu@@ 109
matic 109
milli@@ 109
mạn 109
nhãn 109
operating 109
pop 109
slo@@ 109
toả 109
trà 109
tông 109
university 109
wo@@ 109
yan 109
ặng 109
-up 108
26 108
29 108
3,000 108
Everybody 108
abilities 108
after@@ 108
alities 108
begins 108
calcu@@ 108
copy 108
ective 108
empo@@ 108
ening 108
feedback 108
gh 108
gy 108
hair 108
histor@@ 108
homes 108
hầm 108
losing 108
mechan@@ 108
neighborhood 108
nghi@@ 108
nọ 108
org@@ 108
pain@@ 108
predict 108
produc@@ 108
rup@@ 108
scan@@ 108
stop@@ 108
survival 108
tuyển 108
univer@@ 108
uyên 108
you@@ 108
Bon@@ 107
Bức 107
Free@@ 107
Hệ 107
Rio 107
Stu@@ 107
Thành 107
Thông 107
Tương 107
ables 107
aded 107
awesome 107
base 107
but@@ 107
chemistry 107
chước 107
confi@@ 107
constantly 107
cưỡng 107
del@@ 107
doub@@ 107
expression 107
intr@@ 107
magazine 107
meat 107
motiv@@ 107
neuro@@ 107
nắng 107
piano 107
posi@@ 107
quit@@ 107
separate 107
ski@@ 107
sold 107
spirit 107
tel@@ 107
tens 107
tre@@ 107
yellow 107
2004 106
28 106
Congo 106
Gre@@ 106
War@@ 106
ads 106
appeared 106
associated 106
avoid 106
bo 106
bớt 106
characters 106
chip 106
competition 106
concerned 106
direct 106
distribution 106
experimen@@ 106
faith 106
fan 106
flight 106
khơi 106
ld 106
lò 106
mũ 106
nose 106
ough 106
phenomenon 106
phot@@ 106
proud 106
ron@@ 106
rung 106
sear@@ 106
sister 106
sorry 106
surprised 106
thuẫn 106
thô 106
trac@@ 106
uyền 106
violent 106
vắc 106
òi 106
đuôi 106
đâm 106
ửng 106
2003 105
20th 105
50,000 105
Bra@@ 105
Chủ 105
Dis@@ 105
Dương 105
Mat@@ 105
Này 105
TEDx@@ 105
Thử 105
Wa@@ 105
accomp@@ 105
airplane 105
arms 105
astron@@ 105
believed 105
blu@@ 105
cheap 105
chìa 105
coll@@ 105
count 105
described 105
dimensions 105
dãy 105
facing 105
interpre@@ 105
killing 105
liver 105
nhở 105
perception 105
print 105
ranh 105
recogni@@ 105
rural 105
shapes 105
spot 105
suggests 105
susp@@ 105
thin 105
threat 105
tons 105
tural 105
ultimately 105
universal 105
vở 105
weapons 105
worldwide 105
zon@@ 105
ến 105
ố 105
0.@@ 104
Each 104
Good 104
Latin 104
Thanks 104
Tony 104
analysis 104
angle 104
appear 104
chục 104
cognitive 104
driven 104
elements 104
gift 104
holes 104
honest 104
hur@@ 104
hệt 104
illness 104
influ@@ 104
labor 104
letters 104
lif@@ 104
lát 104
mit 104
mix 104
mortality 104
organs 104
origami 104
pest 104
reci@@ 104
rest@@ 104
river 104
separ@@ 104
sequ@@ 104
solved 104
stro@@ 104
therapy 104
thưa 104
wise 104
zi@@ 104
điêu 104
ười 104
.com 103
1000 103
Ben 103
Chiến 103
Could 103
Jen@@ 103
Ke@@ 103
Ken@@ 103
Mor@@ 103
Shi@@ 103
Yet 103
adop@@ 103
aged 103
arely 103
brilliant 103
chở 103
clip 103
compare 103
defin@@ 103
dish 103
engineers 103
forced 103
hoả 103
identify 103
inven@@ 103
kho 103
lùi 103
lạm 103
moon 103
normally 103
ok 103
ological 103
ordinary 103
organized 103
percei@@ 103
pounds 103
roll 103
sad 103
soldiers 103
sugg@@ 103
theater 103
tough 103
treated 103
tually 103
wide 103
wild 103
ược 103
Frank 102
Howard 102
Hoả 102
Mục 102
Rom@@ 102
Số 102
Tự 102
breath 102
broad@@ 102
bút 102
communi@@ 102
dest 102
dian 102
economics 102
gin 102
harder 102
highest 102
hon@@ 102
hòn 102
lung 102
magi@@ 102
marriage 102
museum 102
muộn 102
mệt 102
mỹ 102
noise 102
nor@@ 102
nợ 102
phẳng 102
ris@@ 102
stood 102
trick 102
ur 102
velo@@ 102
vua 102
33 101
At@@ 101
Gal@@ 101
Henry 101
Hà 101
Ngài 101
Sau@@ 101
Ven@@ 101
acceler@@ 101
ara@@ 101
bọ 101
collection 101
confu@@ 101
cultures 101
demand 101
dist@@ 101
duction 101
fav@@ 101
fru@@ 101
generations 101
gánh 101
hos@@ 101
khúc 101
leaves 101
lock 101
lum 101
monit@@ 101
ngực 101
omy 101
pher@@ 101
provi@@ 101
res@@ 101
safety 101
sia 101
stea@@ 101
sty 101
sugar 101
sứ 101
thôn 101
tioning 101
trấn 101
valuable 101
xi 101
áu 101
đới 101
ọng 101
ứ 101
Bảo 100
Cập 100
Nha 100
Phili@@ 100
Quan 100
Tin 100
artificial 100
clin@@ 100
commercial 100
currently 100
cởi 100
details 100
dings 100
dots 100
election 100
fail 100
gap 100
hasn 100
inner 100
innov@@ 100
jump 100
ken 100
match 100
multiple 100
mấu 100
neu@@ 100
organ 100
paying 100
plus 100
quest 100
scen@@ 100
slowly 100
vel@@ 100
via 100
wal@@ 100
wealth 100
wered 100
đế 100
ộp 100
14@@ 99
Cap@@ 99
Khoa 99
Koran 99
Tiếng 99
Wil@@ 99
ado@@ 99
bubble 99
caused 99
clock 99
considered 99
cure 99
fro@@ 99
glu@@ 99
gos 99
hel@@ 99
lant 99
lers 99
mm 99
oned 99
passionate 99
professional 99
radical 99
satis@@ 99
scene 99
sin 99
sốc 99
tains 99
testing 99
tomorrow 99
tube 99
tured 99
videos 99
vải 99
weird 99
whom 99
ze@@ 99
Ôi 99
ễ 99
ủi 99
2,@@ 98
Ari@@ 98
Chiếc 98
Cor@@ 98
Cứ 98
Second 98
clinical 98
controlled 98
duyệt 98
earth 98
employees 98
exc@@ 98
fell 98
file 98
forests 98
gged 98
hãng 98
invest 98
jazz 98
kịp 98
location 98
maker 98
organisms 98
osity 98
p-@@ 98
plane 98
productive 98
property 98
religious 98
rely 98
ry@@ 98
sage 98
solving 98
spoke 98
sting 98
strate@@ 98
strength 98
tie 98
transpar@@ 98
walls 98
ìm 98
Dự 97
Hàng 97
MT 97
acted 97
affected 97
article 97
cious 97
cket 97
consequences 97
consumption 97
cus 97
cối 97
de-@@ 97
defined 97
een 97
engineer 97
er-@@ 97
gency 97
gor@@ 97
hol@@ 97
i-@@ 97
laugh@@ 97
musc@@ 97
mỏi 97
nghiện 97
nghịch 97
pay@@ 97
repor@@ 97
ráp 97
secre@@ 97
sentence 97
seriously 97
soil 97
sons 97
swim 97
thâm 97
toilet 97
unfortunately 97
òm 97
đi@@ 97
ũ 97
ượng 97
Brian 96
Bình 96
Hi@@ 96
Hình 96
Loại 96
Star@@ 96
Thổ 96
Tốt 96
While 96
X-@@ 96
ak 96
anic 96
approa@@ 96
awful 96
caught 96
character@@ 96
circle 96
connections 96
contact 96
empty 96
feelings 96
govern@@ 96
graduate 96
heads 96
hưu 96
interface 96
itation 96
khiếm 96
khôi 96
leg 96
lưỡng 96
migr@@ 96
musical 96
múa 96
negoti@@ 96
nhặt 96
ods 96
olly 96
oni@@ 96
otherwise 96
phi@@ 96
pleasure 96
producing 96
rễ 96
spring 96
ug@@ 96
ường 96
ừ 96
250 95
As@@ 95
Atlan@@ 95
Cambridge 95
El@@ 95
Everything 95
Pen@@ 95
Pri@@ 95
Stanford 95
aling 95
appro@@ 95
chain 95
discipl@@ 95
dom 95
fat 95
frustr@@ 95
gather@@ 95
graphic 95
hadn 95
hồng 95
infected 95
lau@@ 95
lege 95
lật 95
malaria 95
mers 95
mâu 95
nations 95
nhiếp 95
pages 95
partner 95
penguins 95
photographs 95
preven@@ 95
represent 95
specifically 95
tele@@ 95
user 95
virtual 95
vây 95
wake 95
wondering 95
â@@ 95
èo 95
ên 95
địch 95
đồi 95
ắc 95
ề@@ 95
ứt 95
Ford 94
Ghana 94
He@@ 94
Microsoft 94
Mos@@ 94
Pre@@ 94
Pu@@ 94
Sp@@ 94
Toàn 94
according 94
archit@@ 94
arts 94
blin@@ 94
bright 94
calling 94
confidence 94
convinced 94
curious 94
democratic 94
dogs 94
elling 94
fiction 94
geous 94
hacker 94
hip 94
hẹp 94
ings 94
ins@@ 94
khẳng 94
km 94
kno@@ 94
manage 94
mentary 94
metal 94
mod@@ 94
molecular 94
ng. 94
ngoan 94
now@@ 94
on-@@ 94
phím 94
prevent 94
rement 94
remote 94
sharks 94
sle@@ 94
val 94
whenever 94
ú@@ 94
đố 94
AR@@ 93
Ali@@ 93
Art 93
Does 93
Life 93
My@@ 93
Nghe 93
Quá 93
Rus@@ 93
Rõ 93
Sun 93
Their 93
Thượng 93
Wall 93
analo@@ 93
ater 93
blocks 93
categ@@ 93
chec@@ 93
cuồng 93
diet 93
elec@@ 93
empathy 93
eo 93
expected 93
fewer 93
finish 93
gender 93
hypothe@@ 93
instal@@ 93
intelligent 93
khói 93
ki 93
laser 93
magne@@ 93
master 93
narrative 93
net@@ 93
parent 93
professor 93
prove 93
regular 93
released 93
resource 93
rập 93
rắn 93
scan 93
scar@@ 93
teen@@ 93
threat@@ 93
tum 93
unexpected 93
unless 93
vehicle 93
vươn 93
xes 93
Á@@ 93
Fer@@ 92
Gar@@ 92
Gol@@ 92
Hiệp 92
Mad@@ 92
Oxford 92
Ros@@ 92
Three 92
Uganda 92
accident 92
algorithms 92
arrived 92
burn 92
concentr@@ 92
cope 92
deeper 92
definitely 92
equivalent 92
grandmother 92
han@@ 92
importance 92
ind 92
khuyết 92
mur@@ 92
nà@@ 92
occu@@ 92
pollen 92
president 92
printing 92
promise 92
ride 92
sending 92
signed 92
spo@@ 92
sắt 92
ton@@ 92
ty-@@ 92
underneath 92
viol@@ 92
warming 92
was@@ 92
writer 92
đàm 92
đáo 92
ứa 92
194@@ 91
200@@ 91
32 91
Any@@ 91
Bệnh 91
Jac@@ 91
Juli@@ 91
Tên 91
activi@@ 91
adult 91
autom@@ 91
civili@@ 91
cont@@ 91
cừu 91
designing 91
divi@@ 91
driver 91
duces 91
gối 91
hopefully 91
iP@@ 91
ints 91
invention 91
ja 91
ket 91
khoái 91
launched 91
mảng 91
ou 91
perfor@@ 91
rain@@ 91
saved 91
sources 91
sum@@ 91
techniques 91
thers 91
thin@@ 91
thoughts 91
tica 91
weather 91
đoan 91
đẻ 91
ẫn 91
ế@@ 91
ỉa 91
00 90
800 90
Come 90
Mis@@ 90
Ter@@ 90
You@@ 90
absolute 90
ancy 90
athle@@ 90
atures 90
battery 90
camp 90
cere@@ 90
compos@@ 90
cutting 90
enjo@@ 90
entreprene@@ 90
fal@@ 90
gam@@ 90
je@@ 90
lifetime 90
mail 90
makers 90
notes 90
picked 90
placed 90
players 90
politicians 90
psychology 90
reaction 90
relatively 90
rửa 90
scal@@ 90
signal 90
six@@ 90
ssi@@ 90
susta@@ 90
tables 90
tally 90
tations 90
tần 90
whe@@ 90
ạ@@ 90
ịnh 90
1960 89
1990 89
Bang@@ 89
Bắt 89
Center 89
Day 89
Kore@@ 89
Ok 89
Please 89
Pol@@ 89
Sar@@ 89
Swe@@ 89
Tình 89
We@@ 89
awareness 89
boat 89
closed 89
credit 89
cướp 89
debate 89
dia 89
dru@@ 89
dải 89
eling 89
entropy 89
fourth 89
fre@@ 89
gentlemen 89
heavy 89
hop 89
hospitals 89
independent 89
iness 89
itting 89
lec@@ 89
lot@@ 89
loy@@ 89
management 89
mid@@ 89
motion 89
mul@@ 89
mồi 89
near@@ 89
ora 89
pizza 89
post-@@ 89
processes 89
ration 89
rema@@ 89
reve@@ 89
reward 89
rot@@ 89
sco@@ 89
sor@@ 89
sạn 89
technical 89
terr@@ 89
thir@@ 89
vie@@ 89
woo@@ 89
worried 89
úc 89
ằn 89
Bên 88
Lee 88
Lib@@ 88
Máy 88
Ngân 88
Nu@@ 88
She@@ 88
Taliban 88
Thiết 88
appe@@ 88
budget 88
buying 88
ception 88
chol@@ 88
chín 88
cir@@ 88
commit@@ 88
counter@@ 88
cạn 88
emerging 88
emissions 88
foundation 88
goods 88
hung 88
hurt 88
illu@@ 88
invent 88
ire 88
jec@@ 88
lệch 88
manh 88
metaphor 88
màng 88
nge 88
physici@@ 88
practical 88
require 88
requires 88
selling 88
setting 88
shark 88
ships 88
switch 88
treo 88
trân 88
tu 88
une@@ 88
victims 88
vulnerable 88
vẹn 88
wine 88
ươ@@ 88
ươi 88
ớ@@ 88
ợi 88
2001 87
85 87
Dân 87
Fin@@ 87
Florida 87
Jer@@ 87
Tiến 87
accu@@ 87
addition 87
adly 87
ams 87
bene@@ 87
bơm 87
coal 87
cross 87
dered 87
designers 87
dolph@@ 87
dẻo 87
effectively 87
ena 87
encoura@@ 87
epidemic 87
evil 87
horse 87
ison 87
logi@@ 87
lận 87
lợn 87
measu@@ 87
miss 87
mony 87
mulation 87
nô 87
oting 87
player 87
principle 87
prob@@ 87
rates 87
short@@ 87
staff 87
stance 87
toward 87
tracking 87
tter 87
visu@@ 87
wave 87
àm 87
đạc 87
đạn 87
ết 87
ộng 87
Am@@ 86
Bush 86
Demo@@ 86
Germany 86
Hans 86
Ital@@ 86
Mur@@ 86
Neanderth@@ 86
Prin@@ 86
accept 86
ario 86
arri@@ 86
attrac@@ 86
bin 86
bird 86
bon 86
civilization 86
control@@ 86
cắm 86
cắp 86
diagnos@@ 86
double 86
dynamic 86
dạo 86
ecosystem 86
enz@@ 86
ero@@ 86
exercise 86
existing 86
fel@@ 86
figu@@ 86
folks 86
grandfather 86
hell 86
introduced 86
kins 86
layer 86
los@@ 86
mb 86
nervous 86
newspaper 86
ority 86
portra@@ 86
psy@@ 86
quyên 86
real@@ 86
resear@@ 86
risks 86
signals 86
spectrum 86
status 86
topic 86
transformation 86
trip 86
wings 86
đền 86
ỉnh 86
12@@ 85
31 85
Amy 85
Bank 85
Br@@ 85
Fre@@ 85
Hàn 85
Texas 85
actor 85
alists 85
amounts 85
barri@@ 85
birthday 85
buýt 85
cers 85
disco@@ 85
drink 85
dâm 85
engaged 85
exact 85
exists 85
false 85
fields 85
gger 85
gies 85
gras@@ 85
honor 85
ight 85
introduce 85
iếm 85
khiêu 85
khuynh 85
kẹo 85
kẹt 85
lessons 85
lish 85
long-term 85
lờ 85
manipu@@ 85
memories 85
mirac@@ 85
mistakes 85
modi@@ 85
novel 85
pack@@ 85
peak 85
play@@ 85
pres@@ 85
program@@ 85
pt 85
release 85
restaurant 85
sees 85
sel 85
sible 85
sively 85
stronger 85
trials 85
ural 85
vĩnh 85
waves 85
ìa 85
ơm 85
ển 85
ộ@@ 85
Ala@@ 84
Aristotle 84
Charlie 84
Chi@@ 84
Cho@@ 84
Chri@@ 84
Lego 84
Mas@@ 84
Sahara 84
Since 84
State 84
Sun@@ 84
added 84
appropriate 84
bọc 84
chúc 84
cienti@@ 84
conclu@@ 84
dan@@ 84
dem@@ 84
dọn 84
east 84
ech 84
eleph@@ 84
estab@@ 84
fr@@ 84
huyền 84
invol@@ 84
island 84
iệt 84
kilometers 84
kiệt 84
lady 84
lat@@ 84
lấp 84
mòn 84
nes@@ 84
nhầm 84
personally 84
possibilities 84
refuge@@ 84
remain 84
roughly 84
seat 84
stable 84
stupid 84
tings 84
tox@@ 84
tuân 84
vember 84
xed 84
zer@@ 84
Âm 84
óng 84
ấc 84
.C. 83
120 83
A-@@ 83
Arthur 83
Cha 83
Hi 83
Kể 83
Min@@ 83
Phụ 83
Yemen 83
ac 83
alter@@ 83
alternative 83
ance@@ 83
atu@@ 83
bike 83
breaking 83
bucks 83
bắp 83
cacbon 83
cards 83
carefully 83
cents 83
comple@@ 83
correct 83
custom@@ 83
dir@@ 83
dramatic 83
ets 83
falling 83
farm 83
gy@@ 83
habit@@ 83
humor 83
insight 83
mention 83
multi-@@ 83
nging 83
nhàng 83
poetry 83
principles 83
proteins 83
q@@ 83
qui 83
remin@@ 83
sation 83
silence 83
tradition 83
warm 83
well-being 83
xám 83
ín 83
óm 83
đai 83
đỗ 83
ậu 83
3.@@ 82
A. 82
CEO 82
Chà 82
Hy@@ 82
I.@@ 82
Jim 82
Long 82
Mini@@ 82
Nơi 82
acci@@ 82
accurate 82
ame 82
ant@@ 82
author 82
bet 82
chocolate 82
củ@@ 82
depends 82
des@@ 82
eep 82
encourage 82
error 82
expec@@ 82
explains 82
express 82
gation 82
gie 82
grid 82
inher@@ 82
ino 82
ition 82
iếp 82
liquid 82
lũng 82
m-@@ 82
meaningful 82
mười 82
mồ 82
nership 82
occa@@ 82
part@@ 82
platform 82
pre-@@ 82
rescu@@ 82
shall 82
simul@@ 82
smile 82
stric@@ 82
tent 82
tili@@ 82
trop@@ 82
trú 82
tựa 82
voc@@ 82
web@@ 82
ể 82
Ai@@ 81
Char@@ 81
Ci@@ 81
Cyrus 81
Hun@@ 81
Inter@@ 81
Jor@@ 81
Ku@@ 81
Mình 81
SA 81
Sweden 81
Tru@@ 81
announ@@ 81
anti-@@ 81
arily 81
art@@ 81
ast@@ 81
battle 81
bb@@ 81
bear 81
chemicals 81
chăn 81
ckets 81
cle 81
combine 81
components 81
correc@@ 81
cow 81
crip@@ 81
cương 81
cựu 81
dic 81
electric 81
eless 81
encoun@@ 81
fellow 81
funding 81
ghter 81
giãn 81
hydrogen 81
inev@@ 81
interests 81
ith 81
ko@@ 81
lessly 81
lor 81
me-@@ 81
mentioned 81
mush@@ 81
mỏng 81
nơ-ron 81
particles 81
pet 81
plans 81
protection 81
rare 81
reason@@ 81
recor@@ 81
sensitive 81
sets 81
spar@@ 81
subjects 81
the-@@ 81
thắc 81
thằng 81
till 81
vay 81
walks 81
wars 81
wering 81
y. 81
ão 81
ình 81
ẽ 81
2050 80
Bos@@ 80
Britain 80
ED 80
Ko@@ 80
Lea@@ 80
Lạp 80
Q 80
Sec@@ 80
Tuyệt 80
Tổng 80
appears 80
atoms 80
capture 80
carrying 80
chee@@ 80
chicken 80
chose 80
circumstances 80
craft 80
cs 80
dealing 80
dở 80
eled 80
encing 80
environments 80
factor 80
flower 80
frame 80
fresh 80
gli@@ 80
gold 80
gravity 80
invest@@ 80
judg@@ 80
khéo 80
lơ 80
memor@@ 80
mil@@ 80
mon 80
mọc 80
ngừa 80
nêu 80
participate 80
perform 80
pon@@ 80
privi@@ 80
ram 80
rapidly 80
scared 80
sequence 80
story@@ 80
strict 80
string 80
stry 80
sub-@@ 80
temporary 80
typically 80
variety 80
vượng 80
ware 80
ye 80
íp 80
đợt 80
ạm 80
ẹo 80
CH@@ 79
Daniel 79
Em@@ 79
Gen@@ 79
Han@@ 79
Hải 79
Last 79
Mandela 79
Mer@@ 79
Nghiên 79
Nước 79
Thu@@ 79
Tit@@ 79
advice 79
ak@@ 79
arch@@ 79
burg 79
bá 79
cas@@ 79
cell@@ 79
chest 79
conser@@ 79
domin@@ 79
dũng 79
dốc 79
economies 79
framework 79
fundamentally 79
goals 79
graphy 79
hôi 79
improvi@@ 79
inary 79
innovative 79
jected 79
joined 79
loud 79
mathematics 79
mi 79
mind@@ 79
navi@@ 79
nia 79
percentage 79
prepar@@ 79
root 79
sche@@ 79
sci@@ 79
senses 79
shock 79
shoul@@ 79
singing 79
sports 79
stant 79
sôi 79
thép 79
tile 79
transition 79
unit 79
unusual 79
wl 79
year-old 79
ýt 79
ễu 79
ỉ@@ 79
ụi 79
700 78
Ah 78
BC 78
Lar@@ 78
Norden 78
Science 78
Tổ 78
abled 78
aled 78
animation 78
applied 78
atar 78
aten 78
attacks 78
authority 78
auton@@ 78
boun@@ 78
bun@@ 78
candi@@ 78
chợ 78
constant 78
conventional 78
danger 78
dense 78
doubt 78
ffer@@ 78
galaxy 78
great@@ 78
ho 78
house@@ 78
intellectual 78
interview 78
jump@@ 78
lượt 78
manu@@ 78
medium 78
member 78
messages 78
ounds 78
overwhel@@ 78
pair 78
patent 78
replace 78
rẽ 78
sample 78
shame 78
she@@ 78
spon@@ 78
stics 78
stin@@ 78
stock 78
sweet 78
swimming 78
tain@@ 78
tested 78
therap@@ 78
thoái 78
van@@ 78
viewed 78
vé 78
wondered 78
zone 78
í@@ 78
Điểm 78
Gulf 77
Her 77
Hollywood 77
PT@@ 77
Pan@@ 77
Phil@@ 77
U.N. 77
William 77
architect 77
ardo 77
bloo@@ 77
boxes 77
cave 77
collapse 77
computing 77
concrete 77
cong@@ 77
dam 77
dicated 77
disaster 77
doors 77
economists 77
element 77
elev@@ 77
exchange 77
films 77
finance 77
former 77
hard@@ 77
hoping 77
hoài 77
hạch 77
increasing 77
keys 77
land@@ 77
lus 77
manufacturing 77
mountains 77
movies 77
mày 77
nan 77
nát 77
nén 77
operation 77
opinion 77
passwords 77
philosophy 77
phác 77
primary 77
recei@@ 77
regions 77
roads 77
runs 77
seven@@ 77
shy 77
solid 77
sten 77
suggest 77
sw@@ 77
sym@@ 77
teams 77
tery 77
vely 77
venture 77
worlds 77
éo 77
Đồng 77
ửi 77
ỳ 77
21st 76
Bol@@ 76
Dar@@ 76
Dur@@ 76
German 76
LED 76
Por@@ 76
St. 76
Stephen 76
Tim 76
Watson 76
ade 76
aggre@@ 76
any@@ 76
asing 76
associ@@ 76
automa@@ 76
base@@ 76
bre@@ 76
bách 76
bỗng 76
cau@@ 76
cin@@ 76
collaboration 76
corpor@@ 76
discussion 76
dro 76
dội 76
entrepreneurs 76
esp@@ 76
facial 76
factors 76
flowers 76
ford 76
gal 76
gel 76
hood 76
however 76
increased 76
instruc@@ 76
instrument 76
key@@ 76
kie 76
liter@@ 76
main@@ 76
mes@@ 76
miser@@ 76
n-- 76
nhu@@ 76
nutri@@ 76
of-@@ 76
ola 76
peace@@ 76
polio 76
poly@@ 76
port 76
processing 76
reg@@ 76
rhyth@@ 76
severe 76
shaped 76
skill 76
spa@@ 76
sunlight 76
tea 76
tee 76
teeth 76
tious 76
tory 76
traveling 76
trật 76
tumor 76
vaccines 76
vang 76
vỗ 76
xôi 76
yesterday 76
20,000 75
36 75
Ah@@ 75
Andrew 75
Bác 75
Coca-Cola 75
Foundation 75
Gore 75
Indonesia 75
Lau@@ 75
Mah@@ 75
Nan@@ 75
Phương 75
Quý 75
Ray 75
Russia 75
Sinh 75
acqui@@ 75
ania 75
ansas 75
aria 75
bal 75
behavioral 75
bấy 75
chua 75
chả 75
cies 75
combination 75
constra@@ 75
conversations 75
cooking 75
crow@@ 75
cry 75
diag@@ 75
duced 75
electr@@ 75
escap@@ 75
estion 75
five-@@ 75
help@@ 75
ite@@ 75
lium 75
mming 75
mous 75
movements 75
mum 75
nản 75
oceans 75
option 75
pho 75
pound 75
prepared 75
run@@ 75
served 75
si 75
ssions 75
tat@@ 75
thic 75
thầm 75
tian 75
tiễn 75
toler@@ 75
tries 75
trừu 75
visible 75
wash@@ 75
xíu 75
yard 75
yn@@ 75
ẩu 75
ọ 75
ọi 75
ủa 75
Abraham 74
Brown 74
Congress 74
Gener@@ 74
Ky@@ 74
Lan@@ 74
Mike 74
Muslim 74
Only 74
President 74
Rosling 74
Singapore 74
Som@@ 74
Syria 74
Win@@ 74
an-@@ 74
ange 74
applications 74
ared 74
au 74
authenti@@ 74
bag 74
behaviors 74
bottle 74
burgh 74
bìa 74
centers 74
challenging 74
cians 74
competi@@ 74
corn 74
destruction 74
devil 74
enced 74
ere 74
expert 74
exter@@ 74
fake 74
gn@@ 74
groun@@ 74
heroes 74
holds 74
hori@@ 74
hụt 74
icks 74
include 74
ises 74
journ@@ 74
kilo@@ 74
lished 74
lắc 74
mism 74
nor 74
open@@ 74
ord 74
password 74
previous 74
propor@@ 74
relations 74
resili@@ 74
resistance 74
ri 74
sau@@ 74
sing@@ 74
sophisticated 74
stan 74
stand@@ 74
sup@@ 74
tour 74
transportation 74
venue 74
virtu@@ 74
òn 74
ư@@ 74
ượ@@ 74
1950 73
37 73
4,000 73
Also 73
Institute 73
Israel@@ 73
Nelson 73
Perhaps 73
Sy@@ 73
Thánh 73
agriculture 73
ags 73
atten@@ 73
bili@@ 73
cameras 73
chron@@ 73
cki@@ 73
controver@@ 73
convince 73
ctic 73
deva@@ 73
eets 73
eggs 73
ere@@ 73
ew 73
fusion 73
gall@@ 73
generally 73
gui@@ 73
instinc@@ 73
kg 73
lifestyle 73
lob@@ 73
mar 73
mechanism 73
mirror 73
motor 73
muối 73
nee@@ 73
nghiệt 73
nie 73
offers 73
photograph@@ 73
post 73
procedu@@ 73
progre@@ 73
radiation 73
represents 73
reverse 73
rom@@ 73
ruồi 73
some@@ 73
soun@@ 73
south 73
stands 73
steel 73
surroun@@ 73
tests 73
thẳm 73
yi@@ 73
đà 73
ửa 73
--- 72
1970 72
Carolina 72
Dec@@ 72
Detroit 72
Islamic 72
SS 72
Sal@@ 72
Stewart 72
Te@@ 72
Ty@@ 72
Zealand 72
addic@@ 72
al-@@ 72
and-@@ 72
anony@@ 72
axis 72
bee@@ 72
border 72
busy 72
bướ@@ 72
c. 72
certainty 72
cock@@ 72
consist@@ 72
crowd 72
dancing 72
department 72
dit@@ 72
drin@@ 72
ducing 72
earthquake 72
econom@@ 72
estimate 72
ge-@@ 72
ghters 72
giặt 72
hang@@ 72
ica 72
illegal 72
imple@@ 72
inspiration 72
insulin 72
lap@@ 72
lig@@ 72
literature 72
lúa 72
maps 72
milk 72
nel 72
nơ 72
parking 72
phia 72
presence 72
process@@ 72
rap 72
ros@@ 72
sacrifi@@ 72
samples 72
situations 72
soạn 72
stayed 72
stret@@ 72
surve@@ 72
sustainability 72
súc 72
tape 72
thổ 72
tled 72
transformed 72
trộm 72
ua 72
vụn 72
xăng 72
y-- 72
ùn 72
đẽ 72
ắm 72
ếp 72
ữa 72
.D. 71
2002 71
2012 71
Chào 71
Pole 71
Prize 71
Time 71
Trẻ 71
Yorker 71
appar@@ 71
band 71
ben@@ 71
bit@@ 71
borders 71
buil@@ 71
burning 71
bust 71
chợt 71
clouds 71
coast 71
collecting 71
continent 71
courage 71
cyber@@ 71
dam@@ 71
dated 71
dding 71
determine 71
diagnosed 71
display 71
elly 71
epi@@ 71
existence 71
fears 71
gration 71
gũi 71
hits 71
hunger 71
identical 71
immune 71
inju@@ 71
intense 71
intro@@ 71
jection 71
jective 71
metabo@@ 71
mươi 71
mộng 71
nano 71
nề 71
options 71
organi@@ 71
physically 71
plays 71
potentially 71
pulled 71
reas@@ 71
refu@@ 71
satellite 71
ser 71
signs 71
somewhat 71
stern 71
t. 71
tiv@@ 71
touched 71
ultimate 71
verage 71
vor 71
ván 71
xướng 71
zar@@ 71
ùi 71
Đi 71
ẳng 71
Bob 70
Chile 70
Everyone 70
Hal@@ 70
January 70
Museum 70
Pau@@ 70
Shakespeare 70
Sou@@ 70
Spe@@ 70
Tưởng 70
advanced 70
allowing 70
bê 70
cast 70
centuries 70
chop@@ 70
chẽ 70
closely 70
collected 70
come@@ 70
corporate 70
dary 70
deman@@ 70
deser@@ 70
deta@@ 70
detect 70
dless 70
dot 70
embarras@@ 70
embrace 70
equally 70
functional 70
gible 70
globe 70
interactive 70
joke 70
khoáng 70
laboratory 70
life-@@ 70
males 70
mile 70
mistake 70
mix@@ 70
mượn 70
neighbors 70
ngdom 70
ngẫm 70
ographic 70
ples 70
poses 70
poster 70
properties 70
puzzle 70
quanti@@ 70
ques@@ 70
rough 70
scho@@ 70
slu@@ 70
technique 70
thanks 70
trau@@ 70
treat@@ 70
tím 70
unh@@ 70
vehicles 70
vest 70
viruses 70
whist@@ 70
winter 70
writ@@ 70
xích 70
yn 70
ẫm 70
ị@@ 70
ừ@@ 70
Christmas 69
DA 69
Dou@@ 69
Fa@@ 69
Gia 69
Ham@@ 69
Hom@@ 69
Joshua 69
Nghĩa 69
aces 69
activities 69
ading 69
admit 69
alist 69
app 69
arian 69
arre@@ 69
ax@@ 69
boring 69
bẩn 69
care@@ 69
chart 69
co-@@ 69
continued 69
contrast 69
cược 69
cống 69
desper@@ 69
distinc@@ 69
dỗ 69
echnology 69
execu@@ 69
fab@@ 69
fund 69
generated 69
grain 69
hide 69
horrible 69
hét 69
i-- 69
ids 69
implications 69
inh@@ 69
internal 69
intuitive 69
keeps 69
lites 69
lân 69
mainly 69
nets 69
nhào 69
omes 69
painful 69
paraly@@ 69
phrase 69
proof 69
protected 69
quặc 69
racing 69
rememb@@ 69
rũ 69
shake 69
spreading 69
style 69
swe@@ 69
symptoms 69
tles 69
tonight 69
trán 69
tráng 69
unknown 69
wheel 69
wide@@ 69
xưởng 69
úi 69
ă@@ 69
độn 69
ưới 69
19th 68
55 68
Before 68
Egypt 68
Fo@@ 68
High 68
Hon@@ 68
IBM 68
Island 68
Kevin 68
Lou@@ 68
Montana 68
Qua 68
Revolution 68
Satur@@ 68
Subtitles 68
Transcript 68
Will 68
appear@@ 68
arguments 68
assi@@ 68
ballo@@ 68
bed@@ 68
bias 68
broke 68
commu@@ 68
conclusion 68
conflicts 68
desert 68
designs 68
desk 68
dropped 68
ections 68
ecture 68
elimin@@ 68
entertainment 68
etti 68
evalu@@ 68
explained 68
expres@@ 68
fossi@@ 68
gìn 68
healthcare 68
hò 68
ign 68
incentives 68
ing@@ 68
int@@ 68
journalist 68
kitchen 68
ladies 68
length 68
loyed 68
lều 68
measuring 68
mobi@@ 68
nit@@ 68
obesity 68
occur@@ 68
onies 68
orders 68
pack 68
pen 68
perman@@ 68
phase 68
pushing 68
quad 68
raising 68
reaching 68
rors 68
shar@@ 68
shir@@ 68
soul 68
strea@@ 68
sus 68
tary 68
underwater 68
ville 68
water@@ 68
ó@@ 68
Điện 68
ẻo 68
ều 68
48 67
About 67
Donald 67
Gan@@ 67
Hop@@ 67
House 67
Lấy 67
NG@@ 67
Nobody 67
Project 67
Sam 67
September 67
Sus@@ 67
advertising 67
alia 67
breathe 67
brothers 67
bám 67
bấm 67
cats 67
channel 67
cil 67
claim 67
classes 67
cle@@ 67
ector 67
eet 67
ego 67
faced 67
fic@@ 67
flexi@@ 67
funded 67
galaxies 67
gon@@ 67
hero 67
hiếp 67
hot@@ 67
inspi@@ 67
insurance 67
itarian 67
jo 67
judge 67
largely 67
likes 67
list@@ 67
lite 67
logically 67
loop 67
ly-@@ 67
lánh 67
mble 67
missed 67
mãnh 67
mến 67
nhường 67
obsessed 67
ould 67
overall 67
performing 67
pocket 67
prefer 67
pregnant 67
prototype 67
providing 67
pure 67
py 67
quiet 67
quyến 67
reached 67
records 67
required 67
rever@@ 67
ruột 67
secon@@ 67
shoot 67
sic 67
so-@@ 67
stations 67
stress@@ 67
struck 67
swi@@ 67
systema@@ 67
sét 67
sắm 67
tative 67
unlike 67
vey 67
vor@@ 67
who@@ 67
wire@@ 67
worker 67
óp 67
úa 67
ợ 67
+ 66
Anyway 66
Basically 66
Berk@@ 66
Bot@@ 66
Bronx 66
C. 66
Chị 66
Cri@@ 66
Cần 66
Fu@@ 66
Give 66
Giọng 66
Gla@@ 66
Green 66
Hea@@ 66
Iceland 66
Loài 66
Nguyên 66
Pas@@ 66
Sher@@ 66
abu@@ 66
apo@@ 66
appy 66
assume 66
causing 66
church 66
chôn 66
consumer 66
crea@@ 66
cài 66
divide 66
era@@ 66
expan@@ 66
fail@@ 66
feeding 66
four-@@ 66
garden 66
grass 66
grateful 66
greenhouse 66
honest@@ 66
housing 66
ideal 66
indi@@ 66
ini@@ 66
ising 66
itch@@ 66
lates 66
launch 66
limits 66
luỹ 66
lùng 66
mathematical 66
mechanical 66
mystery 66
mổ 66
naturally 66
nhện 66
nụ 66
osphere 66
ox@@ 66
phun 66
plate 66
pollution 66
recorded 66
relate 66
ria 66
sleep@@ 66
songs 66
sour@@ 66
spoken 66
ste 66
sum 66
surrounded 66
sáo 66
thấm 66
underst@@ 66
Đấy 66
ảm 66
Afgh@@ 65
Air@@ 65
Bel@@ 65
CE@@ 65
Dan@@ 65
Ear@@ 65
Ger@@ 65
Haw@@ 65
Irani@@ 65
Jesus 65
Joseph 65
MS 65
Pop@@ 65
Qaeda 65
Quỹ 65
Silicon 65
Talks 65
Valley 65
agencies 65
ami 65
anda 65
angry 65
antibiotics 65
apartment 65
bold 65
careful 65
cat 65
collap@@ 65
comman@@ 65
dates 65
deaths 65
efficiency 65
eld 65
eline 65
esthe@@ 65
fingers 65
follo@@ 65
frankly 65
grab 65
graph@@ 65
handle 65
hóc 65
ila 65
latest 65
lồng 65
marath@@ 65
methods 65
moder@@ 65
nhạt 65
ni 65
nurses 65
oes 65
oling 65
opera 65
orities 65
papers 65
pharm@@ 65
place@@ 65
pointed 65
pose 65
prac@@ 65
puzz@@ 65
raw 65
religions 65
remove 65
seed 65
senten@@ 65
sually 65
suffer 65
tax 65
theme 65
thung 65
tribe 65
vac@@ 65
vin@@ 65
volume 65
vạch 65
xuân 65
younger 65
zer 65
1980 64
1999 64
Antar@@ 64
BA 64
Bla@@ 64
Colum@@ 64
DVD 64
Delhi 64
France 64
Gandhi 64
Jack 64
Kar@@ 64
Lak@@ 64
Leon@@ 64
Ngoài 64
Nhĩ 64
Palestine 64
Union 64
Wright 64
Zimb@@ 64
abstract 64
academic 64
accessible 64
all@@ 64
ational 64
calcul@@ 64
celebr@@ 64
chọc 64
classic 64
consu@@ 64
criminal 64
cup 64
customers 64
dea@@ 64
disappear 64
educational 64
electron 64
engagement 64
ession 64
fascinated 64
flat 64
functions 64
giọt 64
grand 64
graphics 64
hearts 64
historical 64
huynh 64
hãm 64
indic@@ 64
input 64
interactions 64
jail 64
kee@@ 64
ky@@ 64
lam 64
laugh 64
lest 64
lied 64
loc@@ 64
locked 64
logo 64
lỡ 64
maintain 64
nồng 64
offered 64
oid 64
ole 64
opia 64
organ@@ 64
outcome 64
outcomes 64
paradig@@ 64
passe@@ 64
phe 64
phere 64
populations 64
prece@@ 64
rane 64
recon@@ 64
sensors 64
sexu@@ 64
shut 64
smar@@ 64
soft 64
ssive 64
statement 64
strangers 64
suc@@ 64
swee@@ 64
thượng 64
tied 64
tion-@@ 64
titu@@ 64
triệt 64
tê 64
ures 64
vulnerability 64
weal@@ 64
wherever 64
xăm 64
ắ@@ 64
30@@ 63
AM 63
Afri@@ 63
Alexander 63
BI 63
BJ 63
Bri@@ 63
Cháu 63
Colom@@ 63
E.@@ 63
Far@@ 63
Fellow 63
Finally 63
GG 63
Giải 63
Health 63
Kin@@ 63
Lewis 63
Oc@@ 63
Sĩ 63
Tư 63
absor@@ 63
burger 63
bóc 63
cans 63
centi@@ 63
cheaper 63
chel 63
cky 63
clear@@ 63
concepts 63
contribute 63
dang@@ 63
datab@@ 63
dictionary 63
diplom@@ 63
distur@@ 63
dozen 63
drives 63
eck 63
ee 63
eg@@ 63
ema@@ 63
ener@@ 63
ented 63
evolutionary 63
finite 63
floo@@ 63
focu@@ 63
formation 63
geni@@ 63
hall 63
illusion 63
kness 63
léo 63
mani@@ 63
mulate 63
north 63
oli@@ 63
origin@@ 63
oring 63
phosph@@ 63
planes 63
pred@@ 63
prison@@ 63
projec@@ 63
refer@@ 63
refriger@@ 63
repair 63
roof 63
secure 63
selection 63
sna@@ 63
speaker 63
stors 63
summar@@ 63
taste 63
teen 63
teenagers 63
traveled 63
vy 63
vòi 63
whereas 63
windows 63
ổng 63
-like 62
Arabic 62
Be 62
Bil@@ 62
Cra@@ 62
Five 62
Kim 62
Laden 62
MA 62
SO@@ 62
Scotland 62
Tra@@ 62
Ver@@ 62
Viet@@ 62
WK 62
Wolfram 62
ank@@ 62
anz@@ 62
application 62
attempt 62
banks 62
behave 62
bomb 62
button 62
cartoon 62
citiz@@ 62
clever 62
climb@@ 62
commitment 62
component 62
coral 62
cord 62
cratic 62
curi@@ 62
dau@@ 62
distributed 62
electro@@ 62
equation 62
ester 62
ests 62
eth 62
existed 62
explos@@ 62
fathers 62
fortunate 62
frozen 62
furniture 62
gray 62
guaran@@ 62
gun@@ 62
happier 62
height 62
hotel 62
imagined 62
ingredients 62
inno@@ 62
iển 62
lear@@ 62
library 62
lăng 62
lề 62
medit@@ 62
móng 62
neuron 62
occurred 62
oty@@ 62
pare 62
particip@@ 62
partners 62
poorest 62
practices 62
precisely 62
reads 62
receive 62
reference 62
ridicul@@ 62
roots 62
serving 62
sky@@ 62
sticks 62
tall 62
tals 62
technological 62
tivi 62
translate 62
vis 62
volunteers 62
wheelchair 62
winning 62
ãnh 62
đc 62
ạy 62
ựa 62
.m. 61
3,@@ 61
Central 61
Eastern 61
Islam 61
Jill 61
Kenne@@ 61
Matt 61
Newton 61
Next 61
Os 61
Park 61
Sky@@ 61
Str@@ 61
Ted 61
Tác 61
achieved 61
admini@@ 61
afternoon 61
anding 61
apple 61
appreciate 61
army 61
bee 61
boo@@ 61
captured 61
chromos@@ 61
chuông 61
chằm 61
chớp 61
cially 61
colum@@ 61
combined 61
copy@@ 61
crimin@@ 61
curve 61
director 61
divided 61
dramatically 61
eni@@ 61
figures 61
ignorance 61
imaging 61
impre@@ 61
inequality 61
invite 61
ird 61
khiêm 61
leep 61
marke@@ 61
micr@@ 61
mining 61
morality 61
mỳ 61
nd 61
ng-- 61
nowhere 61
official 61
oral 61
poem 61
polar 61
pursu@@ 61
quạ 61
recyc@@ 61
ried 61
seeds 61
sheep 61
shell 61
sities 61
smoke 61
steri@@ 61
stries 61
surely 61
taneously 61
thal@@ 61
thier 61
three-dimensional 61
trend 61
tuỷ 61
tựu 61
uy 61
veness 61
vứt 61
yp@@ 61
ãy 61
Đảng 61
ườn 61
ịa 61
-making 60
1984 60
34 60
38 60
42 60
96 60
Bible 60
Bir@@ 60
Bl@@ 60
Blue 60
Es@@ 60
Ethi@@ 60
Indi@@ 60
JH 60
Jones 60
L.@@ 60
Moore 60
NI@@ 60
New@@ 60
Os@@ 60
Really 60
Rec@@ 60
Shar@@ 60
Simon 60
Sức 60
Thưa 60
Thường 60
Tom@@ 60
Unfortunately 60
Virginia 60
adapt 60
agu@@ 60
alu@@ 60
aming 60
anim@@ 60
astro@@ 60
attribu@@ 60
brow@@ 60
by-@@ 60
bốc 60
clothes 60
connecting 60
constitu@@ 60
conveni@@ 60
cook 60
destroy 60
destroyed 60
dges 60
distr@@ 60
dition 60
elections 60
embedded 60
ense 60
evening 60
extent 60
falls 60
fat@@ 60
fishing 60
fixed 60
frighten@@ 60
gers 60
ghted 60
hen 60
increases 60
kets 60
knee 60
kìa 60
license 60
lou@@ 60
lui 60
luồng 60
lưỡi 60
manufac@@ 60
mess 60
mously 60
ngẩn 60
nhiễu 60
nếp 60
open-source 60
optimistic 60
organize 60
osaurs 60
ouri@@ 60
parti@@ 60
photography 60
psychi@@ 60
pun@@ 60
random@@ 60
rising 60
rỗng 60
secu@@ 60
sign@@ 60
successfully 60
survey 60
teries 60
thắt 60
tize 60
tribes 60
trillion 60
ulous 60
uyến 60
v.@@ 60
võng 60
vịnh 60
wanting 60
what@@ 60
wired 60
year-olds 60
yle 60
Đường 60
đóm 60
đô-la 60
Ả@@ 60
-and-@@ 59
Act 59
Brooklyn 59
Budd@@ 59
Bước 59
Chưa 59
Cá 59
Di 59
Econ@@ 59
Ever@@ 59
Franc@@ 59
Frank@@ 59
Get 59
Hoà 59
Jan@@ 59
Leban@@ 59
Luật 59
Parkinson 59
Red 59
Squ@@ 59
Tasmanian 59
Teszler 59
Uy 59
Văn 59
abun@@ 59
acc@@ 59
acti@@ 59
agri@@ 59
ano 59
apers 59
aspects 59
ass 59
bacter@@ 59
bow 59
bree@@ 59
bồi 59
charity 59
classical 59
clean@@ 59
comprom@@ 59
cular 59
dal 59
dar 59
dder 59
develop@@ 59
disorder 59
dịp 59
enemy 59
engaging 59
enh@@ 59
extrac@@ 59
fed 59
fic 59
form@@ 59
gestu@@ 59
gạch 59
hack@@ 59
half-@@ 59
herself 59
hoan 59
hungry 59
imper@@ 59
inspiring 59
kiêng 59
less@@ 59
meetings 59
mind-@@ 59
mor 59
musi@@ 59
nels 59
ngưng 59
nik 59
orches@@ 59
otic 59
plenty 59
prosper@@ 59
quan@@ 59
rat 59
rati@@ 59
regar@@ 59
remains 59
remind 59
removed 59
ril@@ 59
rupt 59
score 59
shif@@ 59
shine 59
shor@@ 59
smart@@ 59
speakers 59
standards 59
surgeon 59
surprisingly 59
tancy 59
tioned 59
tract 59
tradi@@ 59
villages 59
vờ 59
whale 59
whales 59
xà 59
yl 59
èm 59
đo@@ 59
đoạt 59
ờ@@ 59
ụ@@ 59
2030 58
24@@ 58
Alpha 58
Argenti@@ 58
Beij@@ 58
Bell 58
Copenhagen 58
Cru@@ 58
Elizab@@ 58
Eve 58
Giai 58
Hawai@@ 58
IN@@ 58
Joh@@ 58
John@@ 58
Johnny 58
Ker@@ 58
Mac@@ 58
Point 58
Rea@@ 58
Scott 58
TEDGlobal 58
Tanzania 58
Whe@@ 58
White 58
Xem 58
addi@@ 58
addre@@ 58
allo@@ 58
anced 58
attemp@@ 58
audi@@ 58
ays 58
bones 58
bot 58
celebrate 58
chemi@@ 58
comfort 58
connec@@ 58
consume 58
cot@@ 58
cọ 58
decline 58
deed 58
delivered 58
describes 58
descrip@@ 58
desti@@ 58
difficul@@ 58
dig@@ 58
dopamine 58
ells 58
eries 58
evolve 58
expand 58
exploration 58
gather 58
gence 58
gác 58
hoành 58
hít 58
ignore 58
indepen@@ 58
ink@@ 58
instruments 58
let@@ 58
linked 58
mad 58
mili@@ 58
ngue 58
ngớ 58
nhi@@ 58
nhóc 58
obstac@@ 58
oldest 58
phenomen@@ 58
ple 58
pool 58
powers 58
printed 58
profession@@ 58
provided 58
rami@@ 58
react 58
represented 58
robotic 58
romantic 58
ror 58
savings 58
season 58
sen 58
session 58
sheet 58
silent 58
sized 58
spinal 58
split 58
statisti@@ 58
stun@@ 58
sọ 58
tac@@ 58
thou@@ 58
transi@@ 58
unlikely 58
upper 58
vibra@@ 58
ysi@@ 58
zy 58
ãng 58
Đơn 58
đuối 58
đúc 58
ưởi 58
ợ@@ 58
1900 57
25@@ 57
58 57
64 57
80s 57
Alex 57
Ang@@ 57
B. 57
El 57
Gor@@ 57
International 57
Julia 57
Ken 57
Line 57
Moz@@ 57
Muslims 57
Olympic 57
Phát 57
Sarah 57
Sin@@ 57
Space 57
Tah@@ 57
The@@ 57
Thêm 57
Thì 57
Trea@@ 57
Trở 57
accur@@ 57
agenda 57
albu@@ 57
ani 57
anticip@@ 57
apa@@ 57
aspect 57
astonishing 57
ause 57
beach 57
bicycle 57
bie 57
breathing 57
champ@@ 57
chap@@ 57
choos@@ 57
chosen 57
climb 57
coordin@@ 57
cổng 57
defense 57
demonstrate 57
depen@@ 57
depend 57
dependent 57
diab@@ 57
dimensional 57
dioxide 57
dow 57
edit@@ 57
efforts 57
enable 57
ert 57
eye@@ 57
f-@@ 57
ference 57
footprint 57
grams 57
hen@@ 57
hận 57
ight@@ 57
injury 57
inte@@ 57
lary 57
life@@ 57
mann 57
mou@@ 57
new@@ 57
ngton 57
nos@@ 57
ologist 57
paintings 57
photograp@@ 57
presen@@ 57
presented 57
pret@@ 57
provo@@ 57
rays 57
regret 57
reported 57
reveal 57
sandwich 57
scary 57
shadow 57
ska 57
succeed 57
suicide 57
synthe@@ 57
tate 57
tea@@ 57
telescope 57
transforma@@ 57
vable 57
vol@@ 57
volunte@@ 57
watt 57
wire 57
yor 57
zo@@ 57
Đứa 57
đu@@ 57
đó@@ 57
đậm 57
ậ@@ 57
ệ@@ 57
30,000 56
30s 56
72 56
AO 56
Cher@@ 56
Children 56
Cy@@ 56
EDI 56
ES@@ 56
Girl 56
Giá 56
Gree@@ 56
Hir@@ 56
Hol@@ 56
Hành 56
Hợp 56
IM@@ 56
Indu@@ 56
Jerusalem 56
June 56
Ob@@ 56
Ol@@ 56
Phot@@ 56
RNA 56
Saharan 56
Sierra 56
Victori@@ 56
Vật 56
affordable 56
agreed 56
algorith@@ 56
alizing 56
amongst 56
athan 56
attle 56
batt@@ 56
beliefs 56
berry 56
bly 56
bể 56
cake 56
canh 56
cartoons 56
chairs 56
cials 56
compas@@ 56
conservation 56
crying 56
debt 56
drone 56
ectively 56
enly 56
ese 56
essence 56
expectations 56
exploring 56
extinct 56
extract 56
fabric 56
females 56
femin@@ 56
fifth 56
finds 56
frea@@ 56
fur 56
gai 56
ghê 56
grows 56
gậy 56
hoãn 56
hyper@@ 56
hổng 56
ination 56
instantly 56
iso@@ 56
istics 56
iti 56
jihad 56
lesc@@ 56
lighting 56
lovely 56
measured 56
mies 56
mines 56
momen@@ 56
musicians 56
mỡ 56
neuroscience 56
ngột 56
omic 56
onic 56
participants 56
pherom@@ 56
poin@@ 56
pollin@@ 56
pressing 56
properly 56
py@@ 56
real-@@ 56
recovery 56
relation 56
rements 56
rer 56
shifting 56
slides 56
sphere 56
spiritual 56
stein 56
stroke 56
symbol 56
thrown 56
tin@@ 56
title 56
tized 56
ual 56
ves@@ 56
vả 56
zoom 56
ât 56
ôt 56
Đo@@ 56
Động 56
đôla 56
ẫu 56
ệm 56
ịu 56
ỏ@@ 56
98 55
Bay 55
Clinton 55
Jay 55
Khá 55
Muhammad 55
Na 55
OECD 55
Other 55
Phòng 55
Quay 55
Remember 55
Sur@@ 55
Sylvia 55
Van 55
Việt 55
acific 55
actors 55
anxiety 55
attached 55
auti@@ 55
boundaries 55
bầy 55
calculate 55
carried 55
chuyền 55
cip@@ 55
coho@@ 55
compla@@ 55
consumers 55
cooperation 55
crac@@ 55
criminals 55
dency 55
density 55
depending 55
derly 55
document 55
dominant 55
dor@@ 55
dows 55
drawn 55
drill 55
drones 55
ecu@@ 55
etes 55
exhibi@@ 55
explanation 55
extre@@ 55
failing 55
friendly 55
full-@@ 55
gom 55
granted 55
gãy 55
hallucin@@ 55
hemis@@ 55
hil@@ 55
imagery 55
iện 55
letting 55
licate 55
lities 55
mentally 55
microscope 55
needle 55
neuros@@ 55
nghẽn 55
nhánh 55
nhủ 55
oxy 55
paren@@ 55
partment 55
phony 55
pilot 55
powered 55
pper 55
presentation 55
quỷ 55
rants 55
relative 55
reson@@ 55
rỉ 55
sculpture 55
stere@@ 55
succee@@ 55
tack@@ 55
talent 55
ter-@@ 55
tiệm 55
tops 55
truck 55
tus 55
tuỵ 55
ums 55
unclear 55
units 55
vel 55
vội 55
Đa 55
điền 55
Eng@@ 54
On@@ 54
agers 54
chil@@ 54
consequ@@ 54
dle 54
ep 54
func@@ 54
gir@@ 54
ican 54
intrigu@@ 54
involves 54
isms 54
knowle@@ 54
lef@@ 54
lli@@ 54
mathema@@ 54
minister 54
monkey 54
motivation 54
neighborhoods 54
neither 54
northern 54
nucle@@ 54
nutrition 54
nàn 54
occur 54
opar@@ 54
oph@@ 54
orus 54
pin@@ 54
pione@@ 54
pointing 54
policies 54
premi@@ 54
privacy 54
proper 54
put@@ 54
recognition 54
restore 54
returned 54
schizoph@@ 54
sensory 54
shopping 54
snow 54
spee@@ 54
struggling 54
tories 54
underground 54
vessels 54
viewer 54
vất 54
xé 54
ía 54
ũng 54
ườ@@ 54
ớn 54
ừa 54
atta@@ 53
bble 53
bec@@ 53
conf@@ 53
ead 53
employ@@ 53
evol@@ 53
gol@@ 53
neighb@@ 53
phil@@ 53
sely 53
spir@@ 53
usual 53
vacc@@ 53
zations 53
Ư@@ 53
ậm 53
Euro@@ 52
achie@@ 52
appreci@@ 52
cess 52
cient 52
civi@@ 52
ech@@ 52
ester@@ 52
expla@@ 52
gely 52
iệ@@ 52
laun@@ 52
les@@ 52
long-@@ 52
obe@@ 52
safe@@ 52
sal 52
swit@@ 52
tely 52
timate 52
tissu@@ 52
unch 52
vative 52
ếm 52
ự@@ 52
Don@@ 51
Tes@@ 51
Willi@@ 51
abor@@ 51
athy 51
cei@@ 51
class@@ 51
consci@@ 51
dyna@@ 51
evi@@ 51
glo@@ 51
iếc 51
iệu 51
mation 51
opti@@ 51
power@@ 51
profes@@ 51
ượn 51
ỗ 51
cide 50
colleagu@@ 50
cript 50
curren@@ 50
desp@@ 50
expen@@ 50
ico 50
immu@@ 50
intu@@ 50
licon 50
lings 50
mely 50
nat@@ 50
sculp@@ 50
sit@@ 50
symp@@ 50
toi@@ 50
tral 50
trou@@ 50
ướt 50
ạnh 50
ầ@@ 50
ồm 50
Uni@@ 49
Vir@@ 49
ald 49
artic@@ 49
coura@@ 49
dimen@@ 49
gover@@ 49
incenti@@ 49
low@@ 49
memb@@ 49
sens@@ 49
sof@@ 49
strial 49
tle@@ 49
uyết 49
ẹn 49
… 49
CD 48
Palesti@@ 48
Sim@@ 48
amed 48
asy 48
commer@@ 48
condi@@ 48
desi@@ 48
extra@@ 48
ghtly 48
impos@@ 48
micros@@ 48
mption 48
robo@@ 48
rough@@ 48
tap@@ 48
âng 48
ả@@ 48
ậy 48
ợn 48
ựng 48
ỹ 48
Austr@@ 47
Wol@@ 47
ason 47
conn@@ 47
dio@@ 47
dow@@ 47
eli@@ 47
even@@ 47
got@@ 47
hydro@@ 47
iếng 47
lev@@ 47
loo@@ 47
plac@@ 47
quot@@ 47
ree 47
suffer@@ 47
sugge@@ 47
til 47
with@@ 47
ỏng 47
ộm 47
ở@@ 47
ởi 47
Ngo@@ 46
Tal@@ 46
Tw@@ 46
antly 46
bud@@ 46
cele@@ 46
del 46
equi@@ 46
exhi@@ 46
experi@@ 46
favor@@ 46
gran@@ 46
grap@@ 46
newsp@@ 46
nifi@@ 46
pression 46
primar@@ 46
progra@@ 46
ques 46
rele@@ 46
scap@@ 46
soldi@@ 46
solu@@ 46
stom@@ 46
streng@@ 46
temper@@ 46
valu@@ 46
vil 46
úm 46
Geor@@ 45
Olymp@@ 45
abo@@ 45
age@@ 45
aning 45
avo@@ 45
cracy 45
esses 45
fing@@ 45
happ@@ 45
immedi@@ 45
jud@@ 45
optimi@@ 45
oto 45
rent 45
ris 45
sibility 45
smal@@ 45
spea@@ 45
tting 45
Í@@ 45
ững 45
Egy@@ 44
S. 44
Secon@@ 44
Wat@@ 44
acr@@ 44
ade@@ 44
campa@@ 44
differ@@ 44
ees 44
engine@@ 44
fee@@ 44
ild 44
jour@@ 44
khi@@ 44
larly 44
like@@ 44
open-@@ 44
regre@@ 44
requi@@ 44
sac@@ 44
sity 44
state@@ 44
tech@@ 44
zon 44
ẽ@@ 44
Ừ 44
aly@@ 43
concep@@ 43
develo@@ 43
ght 43
m. 43
meth@@ 43
ordin@@ 43
oud 43
oul@@ 43
pengu@@ 43
pollu@@ 43
rst 43
simil@@ 43
stitu@@ 43
ve-@@ 43
vements 43
ãn 43
ẹ@@ 43
DP 42
HI@@ 42
Mex@@ 42
Scot@@ 42
Tas@@ 42
Wiki@@ 42
carto@@ 42
emo@@ 42
lit 42
mir@@ 42
native 42
presi@@ 42
previ@@ 42
signifi@@ 42
tom 42
vu@@ 42
weap@@ 42
ớm 42
ứu 42
Brit@@ 41
Del@@ 41
Fran@@ 41
Global 41
Zi@@ 41
chers 41
dation 41
destro@@ 41
ecosyst@@ 41
geon 41
kne@@ 41
mea@@ 41
obse@@ 41
offer@@ 41
thema@@ 41
turing 41
= 40
astic 40
dat@@ 40
fair@@ 40
fits 40
fs 40
ign@@ 40
ject 40
labor@@ 40
moun@@ 40
ood 40
partici@@ 40
prototy@@ 40
rais@@ 40
ras@@ 40
rying 40
soli@@ 40
stru@@ 40
transfor@@ 40
vice 40
ượt 40
ỡ@@ 40
Lad@@ 39
ath@@ 39
dol@@ 39
ereas 39
essor 39
ghten@@ 39
inning 39
inve@@ 39
mom@@ 39
presents 39
proble@@ 39
selves 39
spe@@ 39
surg@@ 39
urch 39
ute 39
won@@ 39
ữ@@ 39
Ira@@ 38
ada 38
atever 38
beauti@@ 38
classi@@ 38
exper@@ 38
extin@@ 38
incre@@ 38
lars 38
satel@@ 38
shap@@ 38
ìn 38
ũ@@ 38
ện 38
D. 37
Sm@@ 37
Stan@@ 37
adver@@ 37
distribu@@ 37
fashi@@ 37
ficial 37
horri@@ 37
individu@@ 37
intel@@ 37
lier 37
partic@@ 37
pati@@ 37
pic 37
plat@@ 37
stery 37
transpor@@ 37
un 37
venu@@ 37
worl@@ 37
õ 37
Carol@@ 36
Jos@@ 36
NA@@ 36
Ox@@ 36
Z 36
acade@@ 36
cept 36
com 36
conven@@ 36
ety 36
exerci@@ 36
fant@@ 36
fortunately 36
fur@@ 36
landscap@@ 36
mach@@ 36
ouse 36
recy@@ 36
sever@@ 36
symbo@@ 36
teles@@ 36
tionary 36
tran@@ 36
um@@ 36
ưởng 36
ợt 36
Nig@@ 35
challeng@@ 35
contin@@ 35
doc@@ 35
eff@@ 35
entially 35
envi@@ 35
medic@@ 35
narra@@ 35
opini@@ 35
ousness 35
ể@@ 35
Cop@@ 34
cess@@ 34
econ@@ 34
fically 34
gentle@@ 34
justi@@ 34
osaur@@ 34
signific@@ 34
sionate 34
ưỡi 34
amine 33
anxi@@ 33
beg@@ 33
ef@@ 33
eness 33
finan@@ 33
iệm 33
mas 33
pants 33
strugg@@ 33
tice 33
une 33
urs 33
volu@@ 33
year@@ 33
ẻ@@ 33
ử@@ 33
CO@@ 32
Eli@@ 32
Gab@@ 32
Goog@@ 32
achiev@@ 32
ades 32
aper 32
deter@@ 32
easi@@ 32
epide@@ 32
ffer 32
illions 32
inal 32
pedia 32
qua@@ 32
roun@@ 32
sand@@ 32
struction 32
sual 32
ç@@ 32
ĩa 32
ằm 32
ệch 32
ịp 32
Goo@@ 31
aga@@ 31
ames 31
atur@@ 31
dden 31
ingredi@@ 31
missions 31
one@@ 31
orig@@ 31
ouldn 31
politici@@ 31
remark@@ 31
ress 31
tane@@ 31
teach@@ 31
timately 31
tish 31
urity 31
Ă@@ 31
ặm 31
ứ@@ 31
Gir@@ 30
Isla@@ 30
Phi@@ 30
arm@@ 30
circum@@ 30
communic@@ 30
deb@@ 30
eal@@ 30
edu@@ 30
j 30
tage 30
xide 30
è@@ 30
õi 30
ẳn 30
ồ@@ 30
ổ@@ 30
ỳ@@ 30
Angel@@ 29
Mand@@ 29
deep@@ 29
drew 29
họ@@ 29
ji@@ 29
materi@@ 29
mol@@ 29
ony@@ 29
pment 29
seri@@ 29
technologi@@ 29
toc@@ 29
wri@@ 29
BM 28
Broo@@ 28
Gh@@ 28
TE@@ 28
U.@@ 28
apart@@ 28
appropri@@ 28
bel 28
bir@@ 28
eel 28
ein 28
fini@@ 28
four@@ 28
gether 28
ignor@@ 28
liar 28
lyn 28
obs 28
perspec@@ 28
rought 28
scienti@@ 28
uyệt 28
zz 28
õ@@ 28
ý@@ 28
App@@ 27
Every@@ 27
Yor@@ 27
bab@@ 27
cac@@ 27
cogni@@ 27
cording 27
enor@@ 27
grow@@ 27
insul@@ 27
iểm 27
libr@@ 27
mee@@ 27
sional 27
vide@@ 27
ướ@@ 27
ẵn 27
ếu 27
ớp 27
ụp 27
) 26
21@@ 26
Alex@@ 26
Whi@@ 26
ann@@ 26
antic 26
descri@@ 26
dise@@ 26
dop@@ 26
exist@@ 26
intui@@ 26
mista@@ 26
nă@@ 26
resul@@ 26
ruption 26
sibly 26
traffi@@ 26
uys 26
Ô 26
ỗng 26
Chin@@ 25
Fr@@ 25
Paki@@ 25
abstr@@ 25
adul@@ 25
adverti@@ 25
anies 25
brilli@@ 25
cals 25
contra@@ 25
dn 25
eci@@ 25
environ@@ 25
hus@@ 25
itely 25
olutionary 25
perf@@ 25
pregn@@ 25
riage 25
samp@@ 25
tality 25
world@@ 25
ô-la 25
ợp 25
ụn 25
Bec@@ 24
Blu@@ 24
concen@@ 24
convin@@ 24
ddle 24
explor@@ 24
fore 24
fran@@ 24
khuy@@ 24
kly 24
metho@@ 24
syst@@ 24
there@@ 24
uro@@ 24
ĩnh 24
ọ@@ 24
# 23
AD@@ 23
Braz@@ 23
Heal@@ 23
Inst@@ 23
Vic@@ 23
Ye@@ 23
clou@@ 23
enever 23
explan@@ 23
fos@@ 23
gin@@ 23
hypo@@ 23
licen@@ 23
spor@@ 23
stati@@ 23
suring 23
tiz@@ 23
trav@@ 23
wear@@ 23
wheel@@ 23
wom@@ 23
wonder@@ 23
ẩ@@ 23
ẵ@@ 23
Ứ@@ 23
ựu 23
Rw@@ 22
adu@@ 22
asp@@ 22
astoni@@ 22
ava@@ 22
child@@ 22
gar 22
happi@@ 22
hope@@ 22
lear 22
magaz@@ 22
meani@@ 22
other@@ 22
plea@@ 22
prev@@ 22
sensi@@ 22
socie@@ 22
stitute 22
success@@ 22
vid 22
ĩ@@ 22
ẹ 22
ễ@@ 22
@ 21
Af@@ 21
Cen@@ 21
Chic@@ 21
K. 21
Wester@@ 21
acity 21
ales 21
ander 21
aur@@ 21
cate@@ 21
conflic@@ 21
effici@@ 21
esn 21
esome 21
fundamen@@ 21
hospit@@ 21
kilome@@ 21
licated 21
mark@@ 21
meaning@@ 21
mem@@ 21
metaph@@ 21
nex@@ 21
quy@@ 21
relev@@ 21
spirit@@ 21
through@@ 21
tribu@@ 21
vard 21
ơ-@@ 21
ướp 21
Ama@@ 20
Fl@@ 20
Trans@@ 20
affor@@ 20
ashi@@ 20
buy@@ 20
consum@@ 20
dit 20
eda 20
ghting 20
hind 20
intellec@@ 20
issu@@ 20
iệp 20
metap@@ 20
popu@@ 20
resour@@ 20
rus 20
sibilities 20
three@@ 20
titles 20
ém 20
Ờ 20
ED@@ 19
ID@@ 19
Mus@@ 19
Sub@@ 19
antage 19
atus 19
busin@@ 19
comfor@@ 19
embar@@ 19
exi@@ 19
fif@@ 19
maj@@ 19
notic@@ 19
sandwi@@ 19
sically 19
surpri@@ 19
techni@@ 19
them@@ 19
tuy@@ 19
uyện 19
volun@@ 19
ầng 19
Chil@@ 18
Europe@@ 18
MR@@ 18
Mic@@ 18
amo@@ 18
apos@@ 18
birth@@ 18
colle@@ 18
dable 18
enty 18
fascin@@ 18
gest 18
grate@@ 18
hic@@ 18
hundre@@ 18
icity 18
impli@@ 18
instru@@ 18
know@@ 18
nega@@ 18
norm@@ 18
performan@@ 18
rd 18
ridi@@ 18
sat@@ 18
som@@ 18
tori@@ 18
villa@@ 18
Ẩ@@ 18
Cong@@ 17
IT 17
Scho@@ 17
aniel 17
appli@@ 17
cee@@ 17
ested 17
gori@@ 17
guar@@ 17
iPh@@ 17
ices 17
iế@@ 17
mage 17
mbers 17
oxy@@ 17
poo@@ 17
sels 17
tempor@@ 17
thous@@ 17
vity 17
vul@@ 17
zza 17
íu 17
ụm 17
Ừ@@ 17
Abra@@ 16
Americ@@ 16
Ea@@ 16
Hen@@ 16
Wom@@ 16
atmos@@ 16
avail@@ 16
awar@@ 16
chang@@ 16
coff@@ 16
dou@@ 16
exac@@ 16
grou@@ 16
insur@@ 16
ither 16
iể@@ 16
kes@@ 16
litary 16
neighbor@@ 16
orrow 16
practi@@ 16
vil@@ 16
Ô@@ 16
ö@@ 16
Arab@@ 15
DV@@ 15
agre@@ 15
chic@@ 15
effi@@ 15
ellow 15
hic 15
inst 15
liệ@@ 15
patter@@ 15
staf@@ 15
tis@@ 15
tremend@@ 15
tron@@ 15
tween 15
valent 15
wis@@ 15
ü@@ 15
ằ@@ 15
ủ@@ 15
AID@@ 14
Bron@@ 14
Imag@@ 14
Steph@@ 14
ander@@ 14
beha@@ 14
dụ@@ 14
earth@@ 14
esterday 14
experim@@ 14
ext 14
hoods 14
poe@@ 14
rhy@@ 14
tainment 14
vered 14
Â@@ 14
ã@@ 14
Ấ@@ 14
Ổ@@ 14
( 13
Gul@@ 13
Japan@@ 13
anks 13
cational 13
conti@@ 13
crete 13
desig@@ 13
hou@@ 13
infrastruc@@ 13
leng@@ 13
ler@@ 13
lymp@@ 13
necess@@ 13
olds 13
osoph@@ 13
prou@@ 13
singly 13
sui@@ 13
techno@@ 13
unexp@@ 13
vices 13
ôla 13
Ale@@ 12
Ara@@ 12
Nel@@ 12
Rich@@ 12
agement 12
aught 12
ca-@@ 12
chuy@@ 12
duce 12
enom@@ 12
erci@@ 12
gni@@ 12
him@@ 12
nical 12
oran 12
orch@@ 12
reco@@ 12
stances 12
tabo@@ 12
ím 12
Ơ@@ 12
ặ@@ 12
ểu 12
Cali@@ 11
Gand@@ 11
Hig@@ 11
Ir@@ 11
Kev@@ 11
Oba@@ 11
_ 11
anistan 11
bicy@@ 11
danger@@ 11
fami@@ 11
ggs 11
lớ@@ 11
oce@@ 11
proce@@ 11
rand@@ 11
sages 11
situ@@ 11
sophis@@ 11
tence 11
thes 11
travel@@ 11
utes 11
¼ 11
À@@ 11
ẫ@@ 11
ặp 11
​ 11
Foun@@ 10
Tali@@ 10
Tim@@ 10
alleng@@ 10
antibio@@ 10
beli@@ 10
conversa@@ 10
eap 10
echno@@ 10
effor@@ 10
fas@@ 10
feed@@ 10
illion 10
itchen 10
jects 10
liqu@@ 10
opportu@@ 10
oppos@@ 10
q 10
quake 10
resident 10
versity 10
vings 10
vulner@@ 10
ä@@ 10
ò@@ 10
õng 10
ø@@ 10
ù@@ 10
ưỡng 10
ữu 10
ỵ@@ 10
Christ@@ 9
Fren@@ 9
Glob@@ 9
Icel@@ 9
Isra@@ 9
Tex@@ 9
acter@@ 9
ership 9
esia 9
fiel@@ 9
icy@@ 9
kinson 9
langu@@ 9
olution 9
outh 9
priv@@ 9
rem@@ 9
scul@@ 9
tocin 9
use@@ 9
wai@@ 9
zen 9
ươn 9
* 8
Aristot@@ 8
Micha@@ 8
PS 8
Sing@@ 8
Thom@@ 8
Twit@@ 8
centu@@ 8
chos@@ 8
cience 8
colate 8
exci@@ 8
gge@@ 8
hua 8
imer 8
lywood 8
quick@@ 8
rapid@@ 8
rase 8
sco 8
tiế@@ 8
tot@@ 8
your@@ 8
Ê 8
â 8
đị@@ 8
ũi 8
ượu 8
อ@@ 8
Ộ@@ 8
Clin@@ 7
auty 7
belie@@ 7
chrom@@ 7
fortun@@ 7
gaz@@ 7
goti@@ 7
isting 7
monstr@@ 7
neur@@ 7
percen@@ 7
phos@@ 7
pid 7
raid 7
symptom@@ 7
televi@@ 7
tury 7
wart 7
̣ 7
ầ 7
ậc 7
Ố@@ 7
ỗ@@ 7
ỷ@@ 7
ỹ@@ 7
Face@@ 6
N. 6
Tanz@@ 6
Ug@@ 6
certain@@ 6
const@@ 6
matically 6
natur@@ 6
prote@@ 6
soph@@ 6
sustain@@ 6
trum 6
tware 6
unex@@ 6
vere 6
year-@@ 6
Ì 6
Ú@@ 6
ï@@ 6
ưở@@ 6
Ạ@@ 6
ẳ@@ 6
ỗn 6
Ủ@@ 6
Arthu@@ 5
Califor@@ 5
Detro@@ 5
Lon@@ 5
OE@@ 5
\ 5
agen 5
alley 5
behavi@@ 5
camer@@ 5
ct 5
dividu@@ 5
eah 5
erra 5
greenh@@ 5
huy@@ 5
mạ@@ 5
nerv@@ 5
noon 5
pass@@ 5
perfec@@ 5
r. 5
religi@@ 5
ric 5
thcare 5
tiệ@@ 5
treprene@@ 5
wher@@ 5
xies 5
£ 5
© 5
¾ 5
Đ 5
Ậ@@ 5
Ắ@@ 5
Ế@@ 5
Indon@@ 4
Lew@@ 4
Micros@@ 4
Montan@@ 4
NA 4
Shakespe@@ 4
` 4
absolu@@ 4
agen@@ 4
damen@@ 4
every@@ 4
gry 4
hous@@ 4
hung@@ 4
iệc 4
iệng 4
lead@@ 4
lease 4
mend@@ 4
movi@@ 4
neath 4
obvi@@ 4
plom@@ 4
principl@@ 4
rastruc@@ 4
robot@@ 4
rom 4
seum 4
sibi@@ 4
slow@@ 4
ssic 4
strang@@ 4
tex 4
uary 4
½ 4
É@@ 4
Ê@@ 4
Ù@@ 4
ë 4
ă 4
Ơ 4
́ 4
ร 4
่ 4
ẫ 4
ệnh 4
 4
Bei@@ 3
Brook@@ 3
Washi@@ 3
achi@@ 3
celer@@ 3
cently 3
dience 3
embed@@ 3
fficul@@ 3
hattan 3
hã@@ 3
ngst 3
nities 3
niture 3
pover@@ 3
sacri@@ 3
schi@@ 3
stud@@ 3
tropy 3
very@@ 3
victi@@ 3
} 3
~ 3
 3
 3
Ã@@ 3
ñ@@ 3
ā@@ 3
đ 3
̀ 3
ย 3
ấ 3
Ệ@@ 3
Ồ@@ 3
ừu 3
Ự 3
Amer@@ 2
Arg@@ 2
Coca-@@ 2
Flori@@ 2
Franci@@ 2
Singap@@ 2
Syl@@ 2
Tasmani@@ 2
YouTu@@ 2
Zeal@@ 2
`@@ 2
acces@@ 2
amoun@@ 2
anderth@@ 2
atest 2
boundar@@ 2
chiế@@ 2
cipl@@ 2
degre@@ 2
ecos@@ 2
frame@@ 2
frien@@ 2
gorith@@ 2
happen@@ 2
incredi@@ 2
intri@@ 2
oft 2
olum@@ 2
olved 2
piec@@ 2
relation@@ 2
rones 2
spiring 2
truc@@ 2
{ 2
² 2
Ì@@ 2
Ó 2
ø 2
ć 2
Č@@ 2
Ť 2
ơ-ron 2
́ 2
Ầ@@ 2
ậ 2
ẳm 2
Ể@@ 2
Ị@@ 2
Ọ@@ 2
Ố 2
Ờ@@ 2
Ử 2
€ 2
 2
Einst@@ 1
Muham@@ 1
ceed 1
ciple 1
compon@@ 1
dạ@@ 1
examp@@ 1
friger@@ 1
ggest 1
hatt@@ 1
heimer 1
intellig@@ 1
lã@@ 1
mately 1
proper@@ 1
redi@@ 1
stac@@ 1
stinc@@ 1
ticated 1
vehic@@ 1
whel@@ 1
zler 1
zoph@@ 1
¡ 1
® 1
Â 1
Å@@ 1
Í 1
ë@@ 1
ē 1
Ĩ 1
ย@@ 1
Ầ 1
ẳ 1
ẵ 1
Ẻ 1
Ẻ@@ 1
ẽn 1
Ể 1
Ỉ@@ 1
Ổ 1
Ỗ@@ 1
Ớ@@ 1
Ở@@ 1
Ụ 1
Ứ 1
Ữ 1
Ỵ 1
你@@ 1
葱 1
送@@ 1
ｃ 1
madeupword0000 0
madeupword0001 0
madeupword0002 0
madeupword0003 0
